<|pad|>	0
<|bos|>	0
<|eos|>	0
<|unk|>	0
<|system|>	0
<|user|>	0
<|assistant|>	0
<|end|>	0
<|code|>	0
<|endofcode|>	0
<0x00>	0
<0x01>	0
<0x02>	0
<0x03>	0
<0x04>	0
<0x05>	0
<0x06>	0
<0x07>	0
<0x08>	0
<0x09>	0
<0x0A>	0
<0x0B>	0
<0x0C>	0
<0x0D>	0
<0x0E>	0
<0x0F>	0
<0x10>	0
<0x11>	0
<0x12>	0
<0x13>	0
<0x14>	0
<0x15>	0
<0x16>	0
<0x17>	0
<0x18>	0
<0x19>	0
<0x1A>	0
<0x1B>	0
<0x1C>	0
<0x1D>	0
<0x1E>	0
<0x1F>	0
<0x20>	0
<0x21>	0
<0x22>	0
<0x23>	0
<0x24>	0
<0x25>	0
<0x26>	0
<0x27>	0
<0x28>	0
<0x29>	0
<0x2A>	0
<0x2B>	0
<0x2C>	0
<0x2D>	0
<0x2E>	0
<0x2F>	0
<0x30>	0
<0x31>	0
<0x32>	0
<0x33>	0
<0x34>	0
<0x35>	0
<0x36>	0
<0x37>	0
<0x38>	0
<0x39>	0
<0x3A>	0
<0x3B>	0
<0x3C>	0
<0x3D>	0
<0x3E>	0
<0x3F>	0
<0x40>	0
<0x41>	0
<0x42>	0
<0x43>	0
<0x44>	0
<0x45>	0
<0x46>	0
<0x47>	0
<0x48>	0
<0x49>	0
<0x4A>	0
<0x4B>	0
<0x4C>	0
<0x4D>	0
<0x4E>	0
<0x4F>	0
<0x50>	0
<0x51>	0
<0x52>	0
<0x53>	0
<0x54>	0
<0x55>	0
<0x56>	0
<0x57>	0
<0x58>	0
<0x59>	0
<0x5A>	0
<0x5B>	0
<0x5C>	0
<0x5D>	0
<0x5E>	0
<0x5F>	0
<0x60>	0
<0x61>	0
<0x62>	0
<0x63>	0
<0x64>	0
<0x65>	0
<0x66>	0
<0x67>	0
<0x68>	0
<0x69>	0
<0x6A>	0
<0x6B>	0
<0x6C>	0
<0x6D>	0
<0x6E>	0
<0x6F>	0
<0x70>	0
<0x71>	0
<0x72>	0
<0x73>	0
<0x74>	0
<0x75>	0
<0x76>	0
<0x77>	0
<0x78>	0
<0x79>	0
<0x7A>	0
<0x7B>	0
<0x7C>	0
<0x7D>	0
<0x7E>	0
<0x7F>	0
<0x80>	0
<0x81>	0
<0x82>	0
<0x83>	0
<0x84>	0
<0x85>	0
<0x86>	0
<0x87>	0
<0x88>	0
<0x89>	0
<0x8A>	0
<0x8B>	0
<0x8C>	0
<0x8D>	0
<0x8E>	0
<0x8F>	0
<0x90>	0
<0x91>	0
<0x92>	0
<0x93>	0
<0x94>	0
<0x95>	0
<0x96>	0
<0x97>	0
<0x98>	0
<0x99>	0
<0x9A>	0
<0x9B>	0
<0x9C>	0
<0x9D>	0
<0x9E>	0
<0x9F>	0
<0xA0>	0
<0xA1>	0
<0xA2>	0
<0xA3>	0
<0xA4>	0
<0xA5>	0
<0xA6>	0
<0xA7>	0
<0xA8>	0
<0xA9>	0
<0xAA>	0
<0xAB>	0
<0xAC>	0
<0xAD>	0
<0xAE>	0
<0xAF>	0
<0xB0>	0
<0xB1>	0
<0xB2>	0
<0xB3>	0
<0xB4>	0
<0xB5>	0
<0xB6>	0
<0xB7>	0
<0xB8>	0
<0xB9>	0
<0xBA>	0
<0xBB>	0
<0xBC>	0
<0xBD>	0
<0xBE>	0
<0xBF>	0
<0xC0>	0
<0xC1>	0
<0xC2>	0
<0xC3>	0
<0xC4>	0
<0xC5>	0
<0xC6>	0
<0xC7>	0
<0xC8>	0
<0xC9>	0
<0xCA>	0
<0xCB>	0
<0xCC>	0
<0xCD>	0
<0xCE>	0
<0xCF>	0
<0xD0>	0
<0xD1>	0
<0xD2>	0
<0xD3>	0
<0xD4>	0
<0xD5>	0
<0xD6>	0
<0xD7>	0
<0xD8>	0
<0xD9>	0
<0xDA>	0
<0xDB>	0
<0xDC>	0
<0xDD>	0
<0xDE>	0
<0xDF>	0
<0xE0>	0
<0xE1>	0
<0xE2>	0
<0xE3>	0
<0xE4>	0
<0xE5>	0
<0xE6>	0
<0xE7>	0
<0xE8>	0
<0xE9>	0
<0xEA>	0
<0xEB>	0
<0xEC>	0
<0xED>	0
<0xEE>	0
<0xEF>	0
<0xF0>	0
<0xF1>	0
<0xF2>	0
<0xF3>	0
<0xF4>	0
<0xF5>	0
<0xF6>	0
<0xF7>	0
<0xF8>	0
<0xF9>	0
<0xFA>	0
<0xFB>	0
<0xFC>	0
<0xFD>	0
<0xFE>	0
<0xFF>	0
▁▁	-0
▁▁▁▁	-1
▁t	-2
▁▁▁▁▁▁▁▁	-3
in	-4
▁a	-5
er	-6
on	-7
he	-8
re	-9
at	-10
se	-11
or	-12
st	-13
▁the	-14
en	-15
▁c	-16
al	-17
it	-18
an	-19
▁o	-20
le	-21
ar	-22
▁w	-23
▁p	-24
▁f	-25
▁s	-26
de	-27
is	-28
ion	-29
ing	-30
ou	-31
▁b	-32
▁in	-33
▁an	-34
es	-35
ic	-36
▁of	-37
ed	-38
▁m	-39
ro	-40
▁to	-41
▁and	-42
ct	-43
▁=	-44
ent	-45
sel	-46
as	-47
self	-48
et	-49
▁n	-50
am	-51
▁d	-52
▁th	-53
▁h	-54
▁▁▁▁▁▁▁▁▁▁▁▁▁▁▁▁	-55
il	-56
▁re	-57
om	-58
im	-59
ur	-60
lo	-61
▁e	-62
ut	-63
ce	-64
ve	-65
▁▁▁▁▁▁▁▁▁▁▁▁	-66
if	-67
▁is	-68
ot	-69
id	-70
ch	-71
el	-72
▁T	-73
ol	-74
▁l	-75
ation	-76
ig	-77
▁g	-78
ad	-79
un	-80
▁'	-81
ul	-82
ver	-83
▁be	-84
ra	-85
▁for	-86
ly	-87
--	-88
pe	-89
▁(	-90
):	-91
ue	-92
▁st	-93
▁A	-94
th	-95
ate	-96
""	-97
▁S	-98
ir	-99
ag	-100
',	-101
ist	-102
▁C	-103
od	-104
ith	-105
##	-106
▁de	-107
▁on	-108
um	-109
ort	-110
ame	-111
▁I	-112
ab	-113
▁that	-114
ri	-115
us	-116
▁con	-117
ay	-118
pt	-119
ass	-120
ck	-121
ers	-122
▁y	-123
te	-124
▁as	-125
ow	-126
rom	-127
res	-128
ter	-129
def	-130
▁or	-131
▁se	-132
▁pro	-133
▁with	-134
ke	-135
port	-136
em	-137
▁it	-138
▁v	-139
qu	-140
nt	-141
▁wh	-142
▁"	-143
▁al	-144
▁are	-145
and	-146
our	-147
▁P	-148
op	-149
▁ex	-150
urn	-151
▁M	-152
▁self	-153
ect	-154
()	-155
ment	-156
est	-157
▁N	-158
ode	-159
ap	-160
▁not	-161
cl	-162
ert	-163
ile	-164
up	-165
ore	-166
ere	-167
one	-168
ult	-169
con	-170
ex	-171
use	-172
ain	-173
),	-174
▁F	-175
ht	-176
▁The	-177
ret	-178
▁com	-179
pl	-180
▁r	-181
for	-182
▁B	-183
ity	-184
ill	-185
('	-186
ase	-187
▁im	-188
ess	-189
art	-190
':	-191
nd	-192
ive	-193
ies	-194
ld	-195
__	-196
"""	-197
os	-198
ction	-199
----	-200
▁D	-201
▁by	-202
ant	-203
▁L	-204
▁he	-205
name	-206
▁W	-207
age	-208
ure	-209
get	-210
end	-211
ang	-212
ew	-213
▁at	-214
ath	-215
able	-216
▁H	-217
return	-218
▁R	-219
iz	-220
out	-221
iv	-222
▁E	-223
ub	-224
▁ch	-225
ine	-226
▁from	-227
ave	-228
▁[	-229
ci	-230
####	-231
▁G	-232
==	-233
▁can	-234
ac	-235
▁le	-236
ype	-237
')	-238
rou	-239
▁un	-240
ost	-241
all	-242
▁this	-243
ple	-244
▁you	-245
int	-246
▁sh	-247
▁lo	-248
to	-249
ight	-250
ata	-251
sion	-252
com	-253
▁was	-254
ff	-255
ib	-256
are	-257
assert	-258
ated	-259
ime	-260
ry	-261
",	-262
pro	-263
ide	-264
ack	-265
ust	-266
▁O	-267
ption	-268
der	-269
ast	-270
ical	-271
▁have	-272
▁we	-273
ds	-274
val	-275
ject	-276
arg	-277
iel	-278
ould	-279
._	-280
ip	-281
ire	-282
ans	-283
']	-284
ance	-285
act	-286
))	-287
▁res	-288
ud	-289
rue	-290
▁use	-291
▁▁▁▁▁▁	-292
ich	-293
▁en	-294
str	-295
ork	-296
per	-297
low	-298
▁ab	-299
par	-300
ial	-301
form	-302
▁do	-303
ror	-304
ther	-305
▁import	-306
▁U	-307
ise	-308
ule	-309
The	-310
so	-311
ary	-312
ice	-313
ict	-314
▁ma	-315
▁k	-316
['	-317
ild	-318
cc	-319
ind	-320
put	-321
sc	-322
ob	-323
▁-	-324
ition	-325
set	-326
▁ad	-327
▁%	-328
ount	-329
▁pl	-330
ss	-331
▁will	-332
▁+	-333
▁so	-334
ace	-335
▁ne	-336
("	-337
ign	-338
log	-339
▁Th	-340
).	-341
▁ar	-342
xt	-343
que	-344
ok	-345
key	-346
ite	-347
from	-348
▁In	-349
▁cont	-350
du	-351
ations	-352
ail	-353
▁which	-354
hen	-355
ence	-356
ong	-357
ents	-358
▁has	-359
▁their	-360
▁test	-361
rib	-362
ory	-363
qual	-364
ard	-365
▁J	-366
▁pre	-367
tr	-368
av	-369
fer	-370
ome	-371
▁{	-372
ual	-373
ug	-374
▁your	-375
ell	-376
ous	-377
eth	-378
▁None	-379
ser	-380
],	-381
▁cl	-382
ose	-383
type	-384
ach	-385
ber	-386
path	-387
▁they	-388
ak	-389
ia	-390
▁more	-391
▁us	-392
ord	-393
ph	-394
odel	-395
ield	-396
--------	-397
▁all	-398
▁ap	-399
▁out	-400
ded	-401
In	-402
▁j	-403
▁==	-404
ep	-405
file	-406
▁val	-407
ces	-408
▁if	-409
ater	-410
odule	-411
ize	-412
ear	-413
class	-414
pon	-415
▁str	-416
########	-417
gh	-418
▁but	-419
**	-420
app	-421
====	-422
ings	-423
ext	-424
cre	-425
▁per	-426
test	-427
ress	-428
▁sy	-429
▁one	-430
text	-431
pr	-432
ses	-433
▁man	-434
ms	-435
▁dis	-436
ns	-437
alse	-438
add	-439
ound	-440
::	-441
ree	-442
ER	-443
▁other	-444
")	-445
▁su	-446
og	-447
her	-448
▁_	-449
sh	-450
ge	-451
▁up	-452
▁go	-453
own	-454
quest	-455
ll	-456
▁V	-457
▁spe	-458
led	-459
che	-460
▁me	-461
▁get	-462
Er	-463
ener	-464
▁also	-465
True	-466
ault	-467
ors	-468
▁part	-469
▁were	-470
ates	-471
▁comm	-472
pre	-473
Error	-474
data	-475
ribut	-476
row	-477
▁ob	-478
oc	-479
args	-480
▁ev	-481
▁“	-482
▁tr	-483
▁K	-484
ange	-485
ool	-486
very	-487
roup	-488
='	-489
ause	-490
▁time	-491
cess	-492
ie	-493
ens	-494
etw	-495
])	-496
ish	-497
arch	-498
ari	-499
tt	-500
gr	-501
▁may	-502
ma	-503
IN	-504
ix	-505
▁work	-506
ys	-507
ink	-508
..	-509
lect	-510
ethod	-511
▁about	-512
Equal	-513
▁inter	-514
ific	-515
fig	-516
ally	-517
fo	-518
▁te	-519
▁when	-520
reat	-521
▁col	-522
ions	-523
▁name	-524
▁This	-525
▁them	-526
irst	-527
rit	-528
cept	-529
▁stud	-530
▁who	-531
▁new	-532
ft	-533
":	-534
atch	-535
▁pe	-536
ample	-537
ove	-538
ays	-539
▁▁▁▁▁▁▁▁▁▁	-540
param	-541
ied	-542
▁St	-543
▁than	-544
unction	-545
pect	-546
ient	-547
lic	-548
arn	-549
ec	-550
▁his	-551
ren	-552
ON	-553
ark	-554
sent	-555
else	-556
//	-557
module	-558
import	-559
▁It	-560
▁under	-561
▁into	-562
▁Ch	-563
Th	-564
stem	-565
▁there	-566
▁li	-567
▁over	-568
lp	-569
co	-570
▁def	-571
enc	-572
assertEqual	-573
="	-574
ues	-575
▁data	-576
▁ro	-577
yp	-578
ource	-579
▁any	-580
▁some	-581
▁file	-582
ible	-583
None	-584
min	-585
▁been	-586
cal	-587
▁used	-588
ople	-589
▁its	-590
mer	-591
▁ser	-592
value	-593
ake	-594
read	-595
▁dif	-596
▁sup	-597
ick	-598
▁ag	-599
oint	-600
AT	-601
ments	-602
olog	-603
ense	-604
▁should	-605
▁num	-606
list	-607
ved	-608
orm	-609
url	-610
▁kn	-611
▁year	-612
vi	-613
▁Y	-614
▁sp	-615
stance	-616
▁no	-617
vel	-618
ES	-619
ative	-620
▁comp	-621
uth	-622
py	-623
version	-624
raise	-625
▁only	-626
▁these	-627
ian	-628
▁sub	-629
▁rel	-630
ood	-631
igh	-632
vice	-633
col	-634
ook	-635
cont	-636
▁incl	-637
▁act	-638
ten	-639
▁set	-640
▁op	-641
▁value	-642
▁wor	-643
ities	-644
▁how	-645
vent	-646
ful	-647
▁acc	-648
AR	-649
rain	-650
▁tw	-651
▁exp	-652
ely	-653
IT	-654
▁people	-655
▁add	-656
▁our	-657
model	-658
les	-659
ne	-660
▁reg	-661
Con	-662
nect	-663
▁__	-664
uct	-665
ray	-666
hed	-667
ator	-668
cial	-669
▁par	-670
▁ret	-671
its	-672
sed	-673
ating	-674
lop	-675
error	-676
date	-677
aw	-678
▁*	-679
▁cre	-680
vers	-681
▁spec	-682
fter	-683
ef	-684
▁ind	-685
▁em	-686
line	-687
▁list	-688
▁first	-689
▁most	-690
▁had	-691
▁child	-692
▁prov	-693
db	-694
dict	-695
▁would	-696
ics	-697
ude	-698
ponse	-699
ular	-700
▁:	-701
with	-702
ures	-703
rough	-704
ields	-705
ble	-706
ffect	-707
ger	-708
▁help	-709
alth	-710
dex	-711
▁pr	-712
quire	-713
▁form	-714
ock	-715
search	-716
user	-717
▁result	-718
ask	-719
▁co	-720
▁x	-721
▁such	-722
▁fe	-723
ices	-724
▁bu	-725
urre	-726
▁Un	-727
▁cons	-728
▁rec	-729
ract	-730
▁pos	-731
▁ac	-732
ines	-733
▁need	-734
ames	-735
velop	-736
OR	-737
▁Re	-738
▁int	-739
ility	-740
opy	-741
eng	-742
▁produ	-743
ages	-744
ml	-745
fl	-746
dir	-747
ational	-748
not	-749
irect	-750
als	-751
'),	-752
▁`	-753
init	-754
Re	-755
lock	-756
ps	-757
▁True	-758
ape	-759
old	-760
▁what	-761
man	-762
EN	-763
▁ph	-764
▁differ	-765
▁sa	-766
▁rem	-767
>>	-768
round	-769
▁#	-770
ptions	-771
vir	-772
icense	-773
▁through	-774
ident	-775
ature	-776
__(	-777
========	-778
▁two	-779
▁att	-780
▁many	-781
print	-782
comm	-783
tem	-784
▁function	-785
▁system	-786
append	-787
St	-788
oth	-789
scri	-790
▁bec	-791
code	-792
▁trans	-793
▁key	-794
▁dist	-795
ublic	-796
▁qu	-797
################	-798
ased	-799
ough	-800
time	-801
▁False	-802
urrent	-803
tern	-804
▁che	-805
''	-806
plic	-807
▁like	-808
object	-809
rite	-810
▁type	-811
▁arg	-812
ins	-813
AL	-814
uring	-815
ced	-816
ax	-817
----------------	-818
ody	-819
ument	-820
the	-821
▁am	-822
essage	-823
een	-824
result	-825
▁develop	-826
default	-827
▁make	-828
ists	-829
ng	-830
pos	-831
fore	-832
ern	-833
stat	-834
Test	-835
oin	-836
▁Con	-837
li	-838
sign	-839
▁pol	-840
load	-841
([	-842
etween	-843
io	-844
ST	-845
util	-846
fil	-847
▁If	-848
son	-849
▁where	-850
arent	-851
▁<	-852
ants	-853
bu	-854
▁fl	-855
▁object	-856
ric	-857
ull	-858
Field	-859
ify	-860
▁gener	-861
▁cal	-862
formation	-863
▁u	-864
▁off	-865
ner	-866
erson	-867
ET	-868
False	-869
dd	-870
▁fol	-871
ery	-872
://	-873
raph	-874
ww	-875
▁▁▁▁▁▁▁▁▁▁▁▁▁▁	-876
ache	-877
info	-878
by	-879
AN	-880
▁between	-881
ank	-882
▁well	-883
▁sm	-884
▁then	-885
▁ent	-886
▁tra	-887
▁vari	-888
ife	-889
ango	-890
config	-891
gan	-892
att	-893
▁He	-894
▁sur	-895
gram	-896
▁–	-897
ware	-898
ning	-899
▁read	-900
ee	-901
▁{'	-902
ids	-903
():	-904
▁see	-905
▁os	-906
▁after	-907
jango	-908
arget	-909
ars	-910
try	-911
count	-912
ily	-913
back	-914
▁could	-915
▁found	-916
▁sim	-917
abel	-918
ception	-919
▁end	-920
other	-921
state	-922
ypes	-923
▁('	-924
sub	-925
▁water	-926
ited	-927
reg	-928
uc	-929
etwork	-930
ash	-931
▁return	-932
except	-933
▁does	-934
ron	-935
▁each	-936
ider	-937
▁provide	-938
ution	-939
ized	-940
viron	-941
▁model	-942
ually	-943
pert	-944
This	-945
uch	-946
▁class	-947
▁sign	-948
▁years	-949
▁License	-950
item	-951
▁high	-952
ever	-953
ov	-954
▁di	-955
instance	-956
ases	-957
▁her	-958
▁even	-959
▁because	-960
▁long	-961
▁state	-962
▁number	-963
num	-964
▁health	-965
SE	-966
▁count	-967
itt	-968
sy	-969
sp	-970
▁just	-971
rol	-972
method	-973
ural	-974
▁ed	-975
Ex	-976
▁different	-977
cent	-978
size	-979
inal	-980
ourse	-981
▁min	-982
pend	-983
group	-984
▁must	-985
format	-986
ission	-987
▁know	-988
ID	-989
ctions	-990
▁method	-991
▁start	-992
'):	-993
["	-994
.__	-995
RE	-996
▁ext	-997
ands	-998
ower	-999
▁line	-1000
ength	-1001
ader	-1002
▁Pro	-1003
vol	-1004
gy	-1005
ically	-1006
red	-1007
▁i	-1008
thon	-1009
▁back	-1010
▁group	-1011
▁same	-1012
▁follow	-1013
Pro	-1014
string	-1015
node	-1016
quired	-1017
fields	-1018
chn	-1019
ute	-1020
wn	-1021
pass	-1022
.,	-1023
elif	-1024
Ch	-1025
fe	-1026
kw	-1027
▁using	-1028
start	-1029
▁sc	-1030
air	-1031
LE	-1032
▁med	-1033
view	-1034
ts	-1035
ified	-1036
chool	-1037
iter	-1038
ember	-1039
ology	-1040
▁level	-1041
▁inst	-1042
ox	-1043
▁ra	-1044
▁incre	-1045
▁way	-1046
▁giv	-1047
meric	-1048
ote	-1049
ribute	-1050
▁We	-1051
IC	-1052
ism	-1053
▁Com	-1054
new	-1055
pected	-1056
▁len	-1057
▁information	-1058
we	-1059
▁cent	-1060
lob	-1061
▁av	-1062
imes	-1063
▁ns	-1064
request	-1065
alue	-1066
any	-1067
▁learn	-1068
struct	-1069
▁effect	-1070
▁cor	-1071
▁world	-1072
▁very	-1073
Type	-1074
].	-1075
▁right	-1076
▁larg	-1077
max	-1078
▁pat	-1079
▁every	-1080
oun	-1081
▁path	-1082
met	-1083
▁>	-1084
attr	-1085
▁const	-1086
ons	-1087
▁those	-1088
wh	-1089
▁support	-1090
scription	-1091
UT	-1092
▁fact	-1093
▁being	-1094
models	-1095
▁&	-1096
▁Wh	-1097
▁As	-1098
cur	-1099
▁sk	-1100
ole	-1101
▁gr	-1102
cond	-1103
▁hum	-1104
me	-1105
ness	-1106
▁research	-1107
ream	-1108
sible	-1109
ier	-1110
},	-1111
▁ter	-1112
arm	-1113
htt	-1114
▁np	-1115
join	-1116
ished	-1117
ler	-1118
ision	-1119
ety	-1120
word	-1121
▁my	-1122
▁[]	-1123
▁car	-1124
▁find	-1125
run	-1126
check	-1127
▁example	-1128
▁ear	-1129
▁children	-1130
▁process	-1131
▁tem	-1132
▁Al	-1133
▁before	-1134
ey	-1135
▁So	-1136
▁Americ	-1137
▁mon	-1138
▁cause	-1139
part	-1140
rel	-1141
br	-1142
▁run	-1143
ather	-1144
▁partic	-1145
."	-1146
▁person	-1147
ele	-1148
▁program	-1149
index	-1150
ename	-1151
▁she	-1152
ains	-1153
ves	-1154
cls	-1155
iss	-1156
write	-1157
▁For	-1158
▁look	-1159
right	-1160
ivers	-1161
▁**	-1162
▁met	-1163
less	-1164
▁default	-1165
AS	-1166
▁said	-1167
▁+=	-1168
comp	-1169
angu	-1170
day	-1171
"]	-1172
▁direct	-1173
vironment	-1174
▁main	-1175
())	-1176
▁comple	-1177
▁version	-1178
▁user	-1179
create	-1180
▁fil	-1181
ince	-1182
ting	-1183
context	-1184
valid	-1185
▁during	-1186
▁\	-1187
▁important	-1188
.”	-1189
obj	-1190
'],	-1191
▁life	-1192
▁show	-1193
▁much	-1194
▁check	-1195
lose	-1196
▁both	-1197
▁art	-1198
mp	-1199
itions	-1200
host	-1201
▁commun	-1202
apt	-1203
▁Ex	-1204
▁low	-1205
▁proble	-1206
field	-1207
ken	-1208
▁include	-1209
isk	-1210
▁techn	-1211
▁fam	-1212
▁allow	-1213
ccess	-1214
response	-1215
``	-1216
▁point	-1217
▁An	-1218
▁call	-1219
uthor	-1220
ade	-1221
ences	-1222
vern	-1223
eturn	-1224
If	-1225
output	-1226
cle	-1227
▁[],	-1228
▁hand	-1229
▁Ar	-1230
iew	-1231
ION	-1232
oid	-1233
▁current	-1234
</	-1235
ared	-1236
come	-1237
▁ele	-1238
▁mod	-1239
Wh	-1240
▁module	-1241
ources	-1242
▁own	-1243
RO	-1244
▁without	-1245
▁made	-1246
loc	-1247
▁bl	-1248
▁Q	-1249
kwargs	-1250
▁/	-1251
ives	-1252
ale	-1253
▁They	-1254
ization	-1255
mb	-1256
▁now	-1257
▁again	-1258
of	-1259
msg	-1260
face	-1261
amp	-1262
▁students	-1263
be	-1264
▁body	-1265
ries	-1266
****	-1267
inter	-1268
▁param	-1269
▁pop	-1270
vert	-1271
bin	-1272
ency	-1273
array	-1274
▁open	-1275
ann	-1276
ven	-1277
▁You	-1278
▁build	-1279
▁es	-1280
▁appro	-1281
▁exper	-1282
▁order	-1283
ply	-1284
org	-1285
▁writ	-1286
."""	-1287
▁food	-1288
und	-1289
ton	-1290
ulti	-1291
stand	-1292
▁el	-1293
▁.	-1294
params	-1295
mon	-1296
})	-1297
▁cond	-1298
▁log	-1299
▁good	-1300
▁dict	-1301
len	-1302
place	-1303
ards	-1304
plit	-1305
pec	-1306
DE	-1307
▁sci	-1308
▁ins	-1309
AM	-1310
Get	-1311
▁cle	-1312
ffer	-1313
md	-1314
▁prote	-1315
(),	-1316
▁sol	-1317
▁grow	-1318
nection	-1319
▁br	-1320
▁stat	-1321
▁study	-1322
ags	-1323
▁z	-1324
▁hist	-1325
▁field	-1326
net	-1327
▁while	-1328
▁request	-1329
▁context	-1330
lib	-1331
bers	-1332
ression	-1333
▁dec	-1334
input	-1335
utils	-1336
aders	-1337
▁string	-1338
ref	-1339
plo	-1340
▁small	-1341
eter	-1342
▁down	-1343
play	-1344
▁mak	-1345
gs	-1346
AC	-1347
ru	-1348
ulation	-1349
action	-1350
pose	-1351
my	-1352
loat	-1353
▁range	-1354
land	-1355
▁text	-1356
uding	-1357
itle	-1358
▁given	-1359
||	-1360
parse	-1361
▁take	-1362
anguage	-1363
client	-1364
▁occ	-1365
▁school	-1366
Name	-1367
base	-1368
▁cell	-1369
▁tak	-1370
...	-1371
sum	-1372
plate	-1373
'\	-1374
▁common	-1375
▁How	-1376
Return	-1377
▁day	-1378
▁called	-1379
perty	-1380
▁!	-1381
ED	-1382
▁treat	-1383
▁report	-1384
▁som	-1385
acter	-1386
unc	-1387
omen	-1388
▁chang	-1389
itive	-1390
ious	-1391
▁char	-1392
http	-1393
▁often	-1394
ables	-1395
django	-1396
ither	-1397
▁activ	-1398
▁create	-1399
▁less	-1400
▁oper	-1401
Set	-1402
ived	-1403
ailable	-1404
▁power	-1405
mission	-1406
rem	-1407
ister	-1408
cy	-1409
status	-1410
▁inf	-1411
ah	-1412
mat	-1413
ftware	-1414
'])	-1415
present	-1416
cer	-1417
order	-1418
ouse	-1419
▁mem	-1420
Ar	-1421
api	-1422
ason	-1423
no	-1424
▁mark	-1425
raw	-1426
▁New	-1427
ght	-1428
description	-1429
▁['	-1430
hip	-1431
rap	-1432
▁mat	-1433
▁don	-1434
▁ref	-1435
rame	-1436
ital	-1437
▁project	-1438
az	-1439
▁present	-1440
label	-1441
way	-1442
▁dise	-1443
Com	-1444
reak	-1445
▁!=	-1446
icle	-1447
tain	-1448
ops	-1449
▁want	-1450
iod	-1451
duct	-1452
▁organ	-1453
dat	-1454
map	-1455
call	-1456
Add	-1457
med	-1458
▁{}	-1459
▁him	-1460
UR	-1461
point	-1462
ross	-1463
▁around	-1464
▁here	-1465
umn	-1466
▁real	-1467
▁py	-1468
ubl	-1469
▁ident	-1470
json	-1471
update	-1472
▁error	-1473
▁gre	-1474
▁est	-1475
plement	-1476
ging	-1477
ivid	-1478
>>>	-1479
▁change	-1480
▁vis	-1481
▁ke	-1482
▁pass	-1483
andom	-1484
▁design	-1485
ral	-1486
ane	-1487
▁three	-1488
▁did	-1489
ets	-1490
IS	-1491
▁redu	-1492
dis	-1493
itional	-1494
iversity	-1495
▁node	-1496
▁bel	-1497
▁X	-1498
ement	-1499
▁De	-1500
fix	-1501
▁human	-1502
▁contin	-1503
▁last	-1504
▁sever	-1505
ential	-1506
ches	-1507
yn	-1508
riv	-1509
ensor	-1510
length	-1511
▁dr	-1512
ward	-1513
Par	-1514
ension	-1515
ateg	-1516
▁lim	-1517
▁non	-1518
▁including	-1519
▁control	-1520
bo	-1521
To	-1522
uture	-1523
vices	-1524
▁doc	-1525
aterial	-1526
▁consider	-1527
▁contain	-1528
lay	-1529
AP	-1530
sup	-1531
Un	-1532
▁dat	-1533
▁copy	-1534
trans	-1535
IL	-1536
▁code	-1537
▁beh	-1538
▁htt	-1539
alk	-1540
▁size	-1541
soci	-1542
▁But	-1543
▁govern	-1544
oding	-1545
▁config	-1546
▁still	-1547
▁local	-1548
ference	-1549
AB	-1550
rop	-1551
tes	-1552
▁public	-1553
▁gen	-1554
idd	-1555
ume	-1556
iled	-1557
lobal	-1558
ING	-1559
▁item	-1560
etime	-1561
▁environment	-1562
ways	-1563
▁values	-1564
message	-1565
▁et	-1566
▁aut	-1567
ury	-1568
gin	-1569
aut	-1570
▁source	-1571
eters	-1572
▁place	-1573
▁product	-1574
Value	-1575
doc	-1576
ffic	-1577
indow	-1578
▁parent	-1579
ately	-1580
▁care	-1581
▁case	-1582
▁cr	-1583
pty	-1584
▁There	-1585
ability	-1586
root	-1587
ior	-1588
ails	-1589
▁output	-1590
▁->	-1591
▁loc	-1592
================	-1593
▁known	-1594
▁Ind	-1595
▁law	-1596
▁play	-1597
'}	-1598
ration	-1599
ividual	-1600
orn	-1601
aces	-1602
▁imp	-1603
▁teach	-1604
▁old	-1605
bs	-1606
bug	-1607
▁within	-1608
rc	-1609
oms	-1610
▁AN	-1611
().	-1612
split	-1613
bl	-1614
▁might	-1615
▁bo	-1616
html	-1617
▁orig	-1618
uro	-1619
▁isinstance	-1620
▁iss	-1621
▁think	-1622
network	-1623
ormal	-1624
▁elect	-1625
▁And	-1626
▁sett	-1627
CT	-1628
ique	-1629
ined	-1630
shape	-1631
▁gu	-1632
ope	-1633
ium	-1634
List	-1635
▁top	-1636
Res	-1637
CH	-1638
ording	-1639
outh	-1640
dom	-1641
▁risk	-1642
File	-1643
,”	-1644
ories	-1645
icult	-1646
▁distribut	-1647
ingle	-1648
work	-1649
ergy	-1650
▁quest	-1651
Cl	-1652
ty	-1653
lood	-1654
nder	-1655
▁ve	-1656
▁following	-1657
ek	-1658
ENT	-1659
▁cert	-1660
▁enc	-1661
ances	-1662
lection	-1663
yle	-1664
▁understand	-1665
icy	-1666
cr	-1667
▁another	-1668
▁required	-1669
▁educ	-1670
UL	-1671
rip	-1672
▁Gener	-1673
amb	-1674
ats	-1675
▁either	-1676
▁pract	-1677
▁ide	-1678
▁experi	-1679
til	-1680
uments	-1681
conom	-1682
▁few	-1683
tring	-1684
▁stand	-1685
'.	-1686
▁exist	-1687
lease	-1688
www	-1689
▁bet	-1690
".	-1691
core	-1692
▁These	-1693
▁rece	-1694
nal	-1695
▁fin	-1696
ush	-1697
It	-1698
▁pur	-1699
▁lead	-1700
▁option	-1701
ugg	-1702
aving	-1703
options	-1704
atures	-1705
▁Se	-1706
▁book	-1707
▁large	-1708
▁po	-1709
▁cap	-1710
▁view	-1711
da	-1712
opt	-1713
verse	-1714
▁Is	-1715
▁|	-1716
ites	-1717
▁available	-1718
values	-1719
lete	-1720
parent	-1721
sw	-1722
OT	-1723
▁specific	-1724
▁response	-1725
table	-1726
ords	-1727
gen	-1728
((	-1729
'''	-1730
▁sl	-1731
hand	-1732
np	-1733
▁individual	-1734
▁--	-1735
CO	-1736
ready	-1737
▁material	-1738
ead	-1739
▁great	-1740
imal	-1741
▁‘	-1742
dist	-1743
IG	-1744
jor	-1745
'))	-1746
names	-1747
TER	-1748
▁struct	-1749
For	-1750
asses	-1751
▁target	-1752
ched	-1753
target	-1754
ager	-1755
▁keep	-1756
const	-1757
▁Eng	-1758
content	-1759
ients	-1760
▁land	-1761
▁Z	-1762
▁course	-1763
heck	-1764
▁move	-1765
option	-1766
▁eas	-1767
server	-1768
▁phys	-1769
▁port	-1770
▁energy	-1771
aster	-1772
spec	-1773
ta	-1774
pack	-1775
imate	-1776
▁Sh	-1777
▁access	-1778
oh	-1779
▁input	-1780
LO	-1781
▁event	-1782
ols	-1783
block	-1784
▁home	-1785
▁too	-1786
▁area	-1787
▁possible	-1788
▁instance	-1789
▁ben	-1790
▁pot	-1791
▁represent	-1792
▁best	-1793
process	-1794
ait	-1795
Id	-1796
▁later	-1797
▁plan	-1798
link	-1799
▁appe	-1800
▁eng	-1801
ik	-1802
▁air	-1803
ond	-1804
rect	-1805
▁results	-1806
fact	-1807
lines	-1808
orth	-1809
▁applic	-1810
▁whe	-1811
▁University	-1812
ights	-1813
most	-1814
vest	-1815
▁impro	-1816
▁free	-1817
pace	-1818
▁development	-1819
equal	-1820
We	-1821
"),	-1822
▁anal	-1823
▁max	-1824
EX	-1825
let	-1826
mark	-1827
Im	-1828
ently	-1829
els	-1830
▁vol	-1831
▁adv	-1832
▁Cl	-1833
ination	-1834
▁means	-1835
▁post	-1836
▁perform	-1837
ograph	-1838
AD	-1839
▁)	-1840
▁against	-1841
▁next	-1842
▁Test	-1843
plied	-1844
▁Col	-1845
scrib	-1846
▁init	-1847
ctor	-1848
▁social	-1849
▁id	-1850
▁On	-1851
ling	-1852
illion	-1853
uid	-1854
ental	-1855
▁since	-1856
▁second	-1857
pol	-1858
▁women	-1859
Al	-1860
oice	-1861
▁disease	-1862
lish	-1863
▁comput	-1864
Key	-1865
now	-1866
▁respon	-1867
cket	-1868
IM	-1869
vious	-1870
tings	-1871
▁meas	-1872
▁cur	-1873
▁interest	-1874
del	-1875
itor	-1876
ped	-1877
ional	-1878
thers	-1879
uration	-1880
store	-1881
mod	-1882
▁American	-1883
HE	-1884
ification	-1885
AG	-1886
▁language	-1887
▁link	-1888
pri	-1889
sys	-1890
Not	-1891
▁bas	-1892
▁mean	-1893
▁based	-1894
▁success	-1895
▁belie	-1896
do	-1897
source	-1898
ators	-1899
err	-1900
exp	-1901
▁fre	-1902
types	-1903
▁war	-1904
▁better	-1905
▁When	-1906
objects	-1907
▁disc	-1908
filename	-1909
ises	-1910
stru	-1911
atural	-1912
off	-1913
▁Ph	-1914
▁ant	-1915
ript	-1916
ians	-1917
▁$	-1918
su	-1919
hes	-1920
▁block	-1921
▁cult	-1922
ilt	-1923
▁become	-1924
filter	-1925
▁action	-1926
function	-1927
▁base	-1928
ustom	-1929
ends	-1930
▁fields	-1931
ANT	-1932
ought	-1933
flow	-1934
session	-1935
idth	-1936
ured	-1937
▁mus	-1938
expected	-1939
▁conf	-1940
▁All	-1941
items	-1942
▁period	-1943
▁particular	-1944
▁models	-1945
▁deter	-1946
▁pain	-1947
▁ass	-1948
▁names	-1949
▁prom	-1950
PE	-1951
▁However	-1952
rag	-1953
auth	-1954
▁To	-1955
▁happ	-1956
HO	-1957
por	-1958
▁General	-1959
▁light	-1960
ires	-1961
▁``	-1962
mock	-1963
rec	-1964
▁expl	-1965
▁history	-1966
xy	-1967
ones	-1968
query	-1969
cmd	-1970
rist	-1971
build	-1972
ploy	-1973
▁host	-1974
atic	-1975
▁family	-1976
▁fore	-1977
ving	-1978
▁early	-1979
▁along	-1980
ills	-1981
▁times	-1982
As	-1983
▁men	-1984
▁associ	-1985
▁train	-1986
▁short	-1987
▁government	-1988
▁able	-1989
▁already	-1990
icro	-1991
▁message	-1992
▁Public	-1993
▁blood	-1994
ogn	-1995
,"	-1996
▁sys	-1997
main	-1998
▁clo	-1999
tag	-2000
][	-2001
▁things	-2002
▁econom	-2003
xml	-2004
PO	-2005
func	-2006
ilar	-2007
▁always	-2008
▁Im	-2009
▁lib	-2010
▁percent	-2011
thing	-2012
▁diff	-2013
▁major	-2014
foo	-2015
Ser	-2016
=[	-2017
{'	-2018
ething	-2019
▁several	-2020
open	-2021
▁rule	-2022
NU	-2023
▁sym	-2024
▁hig	-2025
iness	-2026
sen	-2027
ont	-2028
▁pres	-2029
ittle	-2030
▁learning	-2031
▁above	-2032
▁step	-2033
▁else	-2034
▁side	-2035
▁print	-2036
▁leg	-2037
irc	-2038
▁say	-2039
idence	-2040
▁prof	-2041
ention	-2042
teger	-2043
▁account	-2044
resh	-2045
ological	-2046
member	-2047
▁tre	-2048
agement	-2049
▁det	-2050
image	-2051
▁Or	-2052
▁turn	-2053
project	-2054
mode	-2055
▁publ	-2056
▁http	-2057
▁content	-2058
Data	-2059
▁args	-2060
local	-2061
ql	-2062
rary	-2063
title	-2064
▁near	-2065
match	-2066
▁depend	-2067
▁species	-2068
iving	-2069
▁lik	-2070
ift	-2071
▁United	-2072
ributes	-2073
[:	-2074
roll	-2075
▁try	-2076
af	-2077
env	-2078
▁multi	-2079
sol	-2080
▁invol	-2081
▁—	-2082
▁Can	-2083
ML	-2084
over	-2085
▁put	-2086
cing	-2087
▁types	-2088
▁infl	-2089
ina	-2090
▁ver	-2091
inst	-2092
tra	-2093
▁affect	-2094
parser	-2095
ideo	-2096
ably	-2097
eded	-2098
'}),	-2099
▁sw	-2100
gether	-2101
▁index	-2102
▁cost	-2103
Ra	-2104
▁until	-2105
▁Ap	-2106
▁pack	-2107
exec	-2108
command	-2109
▁connect	-2110
sk	-2111
HT	-2112
stream	-2113
adata	-2114
▁files	-2115
uple	-2116
▁Pl	-2117
side	-2118
omet	-2119
ott	-2120
child	-2121
▁benef	-2122
▁others	-2123
▁single	-2124
▁conditions	-2125
Returns	-2126
▁OF	-2127
▁software	-2128
python	-2129
▁feel	-2130
▁problem	-2131
▁At	-2132
▁full	-2133
▁bro	-2134
▁image	-2135
▁options	-2136
cs	-2137
ication	-2138
ird	-2139
▁bi	-2140
sing	-2141
▁array	-2142
amples	-2143
izer	-2144
find	-2145
▁sure	-2146
Att	-2147
What	-2148
▁equ	-2149
▁prevent	-2150
keys	-2151
▁command	-2152
Case	-2153
▁OR	-2154
▁dest	-2155
Cont	-2156
▁month	-2157
token	-2158
oy	-2159
cially	-2160
▁head	-2161
▁among	-2162
copy	-2163
Ob	-2164
\\	-2165
icode	-2166
▁gl	-2167
(_	-2168
UN	-2169
float	-2170
rans	-2171
cover	-2172
imary	-2173
▁root	-2174
last	-2175
▁certain	-2176
ambda	-2177
une	-2178
▁signific	-2179
urther	-2180
▁dom	-2181
chang	-2182
▁match	-2183
cor	-2184
sl	-2185
▁areas	-2186
oper	-2187
▁expected	-2188
though	-2189
▁country	-2190
▁God	-2191
Time	-2192
▁ri	-2193
▁treatment	-2194
clude	-2195
▁qual	-2196
depend	-2197
▁behav	-2198
▁created	-2199
amed	-2200
DO	-2201
▁Le	-2202
unk	-2203
address	-2204
serv	-2205
▁sum	-2206
TP	-2207
close	-2208
aps	-2209
std	-2210
▁ur	-2211
aper	-2212
fail	-2213
files	-2214
▁scient	-2215
▁amount	-2216
▁far	-2217
▁four	-2218
▁week	-2219
US	-2220
▁bus	-2221
bar	-2222
▁says	-2223
stit	-2224
vari	-2225
▁vir	-2226
df	-2227
orld	-2228
connect	-2229
▁come	-2230
cache	-2231
ged	-2232
▁flow	-2233
sor	-2234
go	-2235
course	-2236
body	-2237
▁IN	-2238
▁plant	-2239
▁clear	-2240
atter	-2241
▁something	-2242
▁age	-2243
current	-2244
▁occur	-2245
▁author	-2246
▁States	-2247
▁needs	-2248
page	-2249
sequ	-2250
post	-2251
▁valid	-2252
▁url	-2253
lim	-2254
▁Res	-2255
▁whether	-2256
uggest	-2257
ym	-2258
agn	-2259
▁space	-2260
▁problems	-2261
▁Py	-2262
mand	-2263
▁character	-2264
lected	-2265
task	-2266
▁ask	-2267
▁special	-2268
▁network	-2269
String	-2270
▁cells	-2271
Is	-2272
ours	-2273
abor	-2274
▁Ad	-2275
Raises	-2276
▁due	-2277
▁little	-2278
▁true	-2279
▁left	-2280
PL	-2281
sess	-2282
Base	-2283
mit	-2284
▁lay	-2285
▁levels	-2286
acy	-2287
template	-2288
settings	-2289
▁rad	-2290
idget	-2291
EM	-2292
▁ge	-2293
▁page	-2294
script	-2295
ibility	-2296
TR	-2297
ESS	-2298
arning	-2299
level	-2300
tocol	-2301
▁foc	-2302
▁task	-2303
▁seem	-2304
▁changes	-2305
▁django	-2306
pen	-2307
struction	-2308
▁Be	-2309
▁opt	-2310
event	-2311
▁making	-2312
▁Cent	-2313
▁"""	-2314
ailed	-2315
utf	-2316
urope	-2317
▁US	-2318
sg	-2319
▁natural	-2320
▁necess	-2321
yd	-2322
has	-2323
▁least	-2324
ored	-2325
▁require	-2326
ump	-2327
Up	-2328
▁words	-2329
ledge	-2330
rix	-2331
delete	-2332
▁Christ	-2333
used	-2334
▁days	-2335
De	-2336
nown	-2337
▁describ	-2338
oot	-2339
********	-2340
debug	-2341
▁table	-2342
:`	-2343
valu	-2344
▁National	-2345
▁,	-2346
like	-2347
▁press	-2348
▁provided	-2349
gener	-2350
▁brain	-2351
ively	-2352
▁creat	-2353
required	-2354
▁address	-2355
book	-2356
abase	-2357
ired	-2358
On	-2359
▁heart	-2360
▁raise	-2361
can	-2362
leep	-2363
▁En	-2364
IP	-2365
▁gra	-2366
▁Value	-2367
▁suggest	-2368
aim	-2369
ising	-2370
ae	-2371
perties	-2372
ips	-2373
▁potential	-2374
En	-2375
ried	-2376
gress	-2377
opyright	-2378
uss	-2379
uded	-2380
▁give	-2381
▁likely	-2382
▁significant	-2383
▁document	-2384
▁bre	-2385
▁begin	-2386
▁impact	-2387
eral	-2388
▁protect	-2389
ysis	-2390
▁mode	-2391
There	-2392
atform	-2393
▁indic	-2394
ering	-2395
▁service	-2396
ison	-2397
related	-2398
Char	-2399
▁Go	-2400
▁indust	-2401
▁terms	-2402
inary	-2403
Se	-2404
eds	-2405
▁dep	-2406
ternal	-2407
▁future	-2408
▁similar	-2409
oph	-2410
▁simple	-2411
ached	-2412
By	-2413
▁Af	-2414
)))	-2415
iddle	-2416
▁systems	-2417
ilities	-2418
He	-2419
Col	-2420
header	-2421
bit	-2422
active	-2423
orage	-2424
cp	-2425
▁usually	-2426
▁implement	-2427
▁past	-2428
prefix	-2429
abled	-2430
▁div	-2431
▁hard	-2432
▁reason	-2433
aves	-2434
▁distributed	-2435
ero	-2436
An	-2437
▁polit	-2438
structor	-2439
▁tot	-2440
▁rest	-2441
reate	-2442
ride	-2443
▁Med	-2444
box	-2445
ystem	-2446
▁super	-2447
▁Sp	-2448
assertTrue	-2449
asing	-2450
aries	-2451
▁never	-2452
You	-2453
Text	-2454
oved	-2455
aug	-2456
▁infect	-2457
imum	-2458
▁various	-2459
vis	-2460
▁fac	-2461
">	-2462
▁today	-2463
▁cases	-2464
▁Fr	-2465
istic	-2466
ams	-2467
ides	-2468
▁Europe	-2469
▁cannot	-2470
▁done	-2471
▁education	-2472
dest	-2473
▁invest	-2474
▁shape	-2475
Bu	-2476
unit	-2477
patch	-2478
▁working	-2479
lin	-2480
verage	-2481
▁limit	-2482
▁published	-2483
▁What	-2484
▁role	-2485
▁why	-2486
▁increase	-2487
▁crit	-2488
All	-2489
ugin	-2490
ilit	-2491
down	-2492
help	-2493
▁subject	-2494
▁""	-2495
▁community	-2496
▁dig	-2497
pecially	-2498
Address	-2499
How	-2500
(*	-2501
ifier	-2502
conf	-2503
▁cy	-2504
▁mar	-2505
▁across	-2506
▁death	-2507
▁trad	-2508
▁IS	-2509
GL	-2510
esc	-2511
TestCase	-2512
alf	-2513
EST	-2514
▁imm	-2515
▁temper	-2516
▁difficult	-2517
▁population	-2518
▁scal	-2519
property	-2520
gn	-2521
▁sen	-2522
▁below	-2523
tual	-2524
▁groups	-2525
OP	-2526
ze	-2527
char	-2528
▁enough	-2529
cul	-2530
wise	-2531
~~	-2532
▁GNU	-2533
Model	-2534
▁sent	-2535
po	-2536
break	-2537
ls	-2538
erman	-2539
password	-2540
ux	-2541
▁cho	-2542
▁higher	-2543
▁'%	-2544
aff	-2545
iff	-2546
range	-2547
▁writing	-2548
▁Man	-2549
wards	-2550
▁technology	-2551
▁together	-2552
▁format	-2553
▁ey	-2554
alt	-2555
▁million	-2556
super	-2557
▁Te	-2558
device	-2559
change	-2560
▁experience	-2561
▁lower	-2562
▁Ser	-2563
▁uid	-2564
ptoms	-2565
Sh	-2566
▁ens	-2567
oud	-2568
selves	-2569
assertRaises	-2570
ivity	-2571
▁thought	-2572
▁relations	-2573
▁server	-2574
▁strong	-2575
Exception	-2576
▁ValueError	-2577
▁word	-2578
▁century	-2579
▁WIT	-2580
top	-2581
▁color	-2582
▁Sci	-2583
cell	-2584
▁sit	-2585
▁ir	-2586
Object	-2587
▁prob	-2588
CON	-2589
tegr	-2590
hol	-2591
atory	-2592
▁estab	-2593
while	-2594
User	-2595
ping	-2596
▁methods	-2597
▁ill	-2598
replace	-2599
▁let	-2600
▁general	-2601
ev	-2602
ciety	-2603
▁objects	-2604
▁cancer	-2605
Check	-2606
▁related	-2607
▁works	-2608
itted	-2609
▁associated	-2610
▁Not	-2611
account	-2612
▁refer	-2613
▁away	-2614
ges	-2615
▁having	-2616
lex	-2617
▁tests	-2618
▁however	-2619
▁job	-2620
FF	-2621
pop	-2622
annel	-2623
▁exec	-2624
▁status	-2625
Node	-2626
rivate	-2627
itch	-2628
▁mot	-2629
////	-2630
▁Joh	-2631
▁ANY	-2632
ained	-2633
admin	-2634
ounter	-2635
oney	-2636
var	-2637
▁neg	-2638
.)	-2639
▁rights	-2640
▁unit	-2641
▁circ	-2642
▁makes	-2643
CL	-2644
ogle	-2645
logger	-2646
▁live	-2647
ournal	-2648
▁write	-2649
ued	-2650
raft	-2651
*-	-2652
▁needed	-2653
ung	-2654
contin	-2655
▁Ear	-2656
▁consum	-2657
ised	-2658
▁once	-2659
▁ways	-2660
empty	-2661
When	-2662
▁Brit	-2663
curity	-2664
▁resources	-2665
▁site	-2666
lement	-2667
headers	-2668
▁big	-2669
▁label	-2670
rad	-2671
▁improve	-2672
▁device	-2673
▁pay	-2674
▁One	-2675
▁young	-2676
▁ther	-2677
▁countries	-2678
lot	-2679
▁length	-2680
▁Ge	-2681
meta	-2682
▁profess	-2683
▁fail	-2684
ene	-2685
)]	-2686
▁especially	-2687
rodu	-2688
').	-2689
▁going	-2690
ionary	-2691
location	-2692
▁Some	-2693
▁global	-2694
oman	-2695
ster	-2696
▁connection	-2697
)),	-2698
ARR	-2699
IR	-2700
▁dam	-2701
▁-*-	-2702
▁instead	-2703
▁doesn	-2704
amin	-2705
▁arch	-2706
▁Afric	-2707
tempt	-2708
▁sens	-2709
▁details	-2710
pk	-2711
▁position	-2712
aring	-2713
▁By	-2714
▁dri	-2715
eta	-2716
strip	-2717
▁load	-2718
req	-2719
▁chem	-2720
▁correct	-2721
▁close	-2722
urch	-2723
▁further	-2724
Form	-2725
ias	-2726
Ap	-2727
▁red	-2728
first	-2729
▁question	-2730
▁total	-2731
thern	-2732
▁initial	-2733
rate	-2734
▁clean	-2735
ATE	-2736
▁six	-2737
▁plants	-2738
make	-2739
▁physical	-2740
▁element	-2741
▁answ	-2742
ITY	-2743
tot	-2744
essages	-2745
mbol	-2746
No	-2747
▁rather	-2748
▁useful	-2749
▁really	-2750
src	-2751
show	-2752
▁sort	-2753
▁effects	-2754
save	-2755
uary	-2756
year	-2757
▁row	-2758
CE	-2759
ouble	-2760
OS	-2761
▁seen	-2762
Def	-2763
datetime	-2764
ening	-2765
assed	-2766
ront	-2767
pool	-2768
▁CON	-2769
tect	-2770
▁products	-2771
▁With	-2772
▁inv	-2773
▁bir	-2774
▁knowledge	-2775
oo	-2776
service	-2777
inci	-2778
▁separ	-2779
AME	-2780
▁members	-2781
pat	-2782
arr	-2783
See	-2784
▁date	-2785
▁offer	-2786
head	-2787
▁according	-2788
▁pri	-2789
▁break	-2790
▁typ	-2791
▁anim	-2792
results	-2793
fficient	-2794
▁specified	-2795
▁normal	-2796
select	-2797
ales	-2798
cho	-2799
▁city	-2800
▁original	-2801
ounds	-2802
hel	-2803
▁chall	-2804
▁house	-2805
chie	-2806
▁studies	-2807
▁World	-2808
▁Cal	-2809
▁fall	-2810
▁symptoms	-2811
dim	-2812
sec	-2813
aged	-2814
▁previous	-2815
▁rate	-2816
▁lines	-2817
ai	-2818
But	-2819
▁patients	-2820
▁activity	-2821
aking	-2822
next	-2823
dtype	-2824
▁became	-2825
ram	-2826
▁late	-2827
changed	-2828
Param	-2829
▁Ne	-2830
▁actually	-2831
only	-2832
▁English	-2833
uint	-2834
▁Par	-2835
width	-2836
number	-2837
▁See	-2838
▁weight	-2839
plication	-2840
td	-2841
▁frequ	-2842
bon	-2843
rie	-2844
▁stop	-2845
▁des	-2846
▁extra	-2847
▁production	-2848
▁complex	-2849
ersion	-2850
connection	-2851
actions	-2852
▁addition	-2853
reen	-2854
aced	-2855
icial	-2856
iles	-2857
posed	-2858
▁particip	-2859
PI	-2860
VER	-2861
▁story	-2862
With	-2863
▁employ	-2864
▁cover	-2865
▁parts	-2866
▁"\	-2867
▁accept	-2868
email	-2869
▁relative	-2870
▁received	-2871
▁quality	-2872
rial	-2873
ports	-2874
ley	-2875
▁That	-2876
light	-2877
fin	-2878
[-	-2879
▁Add	-2880
fn	-2881
itude	-2882
▁record	-2883
imple	-2884
medi	-2885
▁ground	-2886
▁recogn	-2887
▁nut	-2888
▁Copyright	-2889
utes	-2890
Hand	-2891
▁itself	-2892
▁states	-2893
position	-2894
▁reduce	-2895
▁activities	-2896
acc	-2897
enses	-2898
▁whole	-2899
▁War	-2900
mber	-2901
ended	-2902
▁building	-2903
▁science	-2904
▁issues	-2905
And	-2906
▁lot	-2907
Config	-2908
mic	-2909
apping	-2910
▁added	-2911
frame	-2912
Attribute	-2913
▁sec	-2914
▁necessary	-2915
▁eff	-2916
quires	-2917
▁loss	-2918
ks	-2919
ARRANT	-2920
mt	-2921
ered	-2922
pread	-2923
▁influ	-2924
▁Cont	-2925
▁equal	-2926
encies	-2927
','	-2928
ressed	-2929
▁obtain	-2930
fs	-2931
▁search	-2932
▁condition	-2933
▁taken	-2934
▁',	-2935
ui	-2936
using	-2937
▁force	-2938
▁obj	-2939
▁though	-2940
▁built	-2941
▁random	-2942
▁article	-2943
▁Dr	-2944
aging	-2945
sa	-2946
▁micro	-2947
step	-2948
random	-2949
▁student	-2950
ground	-2951
▁cut	-2952
stack	-2953
▁tree	-2954
▁colle	-2955
ending	-2956
ALL	-2957
Request	-2958
Ip	-2959
▁situ	-2960
▁considered	-2961
▁complet	-2962
ponents	-2963
uck	-2964
▁phot	-2965
▁No	-2966
▁growth	-2967
fort	-2968
▁German	-2969
▁multiple	-2970
encode	-2971
FA	-2972
static	-2973
▁Mar	-2974
▁yet	-2975
▁Do	-2976
author	-2977
▁black	-2978
▁deg	-2979
iol	-2980
▁provides	-2981
aste	-2982
remove	-2983
▁rele	-2984
aded	-2985
▁ax	-2986
rule	-2987
▁team	-2988
ategory	-2989
▁conc	-2990
▁ses	-2991
FI	-2992
anch	-2993
continue	-2994
known	-2995
enn	-2996
▁upon	-2997
lower	-2998
▁mer	-2999
▁directory	-3000
Path	-3001
▁Python	-3002
▁Per	-3003
issing	-3004
▁tell	-3005
▁kind	-3006
▁Health	-3007
iding	-3008
send	-3009
ters	-3010
▁standard	-3011
istory	-3012
utions	-3013
▁Stud	-3014
▁uses	-3015
▁THE	-3016
▁relationship	-3017
▁paper	-3018
queue	-3019
▁Found	-3020
▁effort	-3021
▁developed	-3022
▁Ab	-3023
▁Intern	-3024
▁la	-3025
▁evidence	-3026
▁surface	-3027
ponent	-3028
mem	-3029
▁five	-3030
olean	-3031
system	-3032
▁avoid	-3033
▁client	-3034
graph	-3035
ival	-3036
amm	-3037
▁achie	-3038
▁engine	-3039
▁session	-3040
At	-3041
istry	-3042
Or	-3043
umb	-3044
umns	-3045
product	-3046
gl	-3047
▁feed	-3048
pid	-3049
▁token	-3050
sets	-3051
▁meet	-3052
allow	-3053
chan	-3054
▁argument	-3055
▁oil	-3056
portun	-3057
▁recomm	-3058
abs	-3059
▁structure	-3060
▁custom	-3061
]:	-3062
based	-3063
▁Pol	-3064
Dict	-3065
sential	-3066
▁fun	-3067
▁white	-3068
ETTER	-3069
▁questions	-3070
▁property	-3071
IO	-3072
▁region	-3073
▁proper	-3074
▁medical	-3075
UP	-3076
▁forms	-3077
etch	-3078
entry	-3079
erci	-3080
▁won	-3081
mine	-3082
▁wide	-3083
▁etc	-3084
▁entire	-3085
▁exception	-3086
Out	-3087
▁filename	-3088
▁term	-3089
CharField	-3090
ender	-3091
IV	-3092
sych	-3093
▁attack	-3094
▁fri	-3095
▁nature	-3096
▁May	-3097
▁Pr	-3098
fully	-3099
▁materials	-3100
TY	-3101
tests	-3102
▁liter	-3103
▁resource	-3104
▁training	-3105
resource	-3106
register	-3107
NA	-3108
mail	-3109
▁national	-3110
username	-3111
but	-3112
▁decl	-3113
▁mind	-3114
▁Car	-3115
▁skills	-3116
▁themselves	-3117
▁climate	-3118
▁sun	-3119
ened	-3120
null	-3121
▁WARRANT	-3122
column	-3123
▁bar	-3124
▁LETTER	-3125
▁agre	-3126
Log	-3127
▁Dep	-3128
ivil	-3129
▁sequ	-3130
▁North	-3131
▁mov	-3132
ding	-3133
▁behavior	-3134
▁personal	-3135
olution	-3136
▁json	-3137
▁West	-3138
);	-3139
▁purpose	-3140
▁She	-3141
▁events	-3142
OF	-3143
▁came	-3144
▁exc	-3145
▁South	-3146
akes	-3147
▁combin	-3148
win	-3149
▁services	-3150
comes	-3151
▁researchers	-3152
au	-3153
▁send	-3154
▁ann	-3155
▁settings	-3156
umber	-3157
usion	-3158
Reg	-3159
▁drug	-3160
▁mass	-3161
▁Act	-3162
▁relig	-3163
domain	-3164
▁map	-3165
rown	-3166
color	-3167
IB	-3168
▁living	-3169
▁discus	-3170
▁policy	-3171
▁management	-3172
iers	-3173
▁business	-3174
irm	-3175
leg	-3176
From	-3177
▁pressure	-3178
▁contains	-3179
uff	-3180
sche	-3181
▁ign	-3182
aining	-3183
▁visit	-3184
argument	-3185
izing	-3186
▁'.	-3187
▁hope	-3188
`.	-3189
▁soil	-3190
▁query	-3191
▁float	-3192
iqu	-3193
▁comes	-3194
▁cour	-3195
▁animals	-3196
▁quick	-3197
▁app	-3198
▁America	-3199
▁tag	-3200
ixed	-3201
▁section	-3202
▁effective	-3203
▁John	-3204
▁introdu	-3205
ART	-3206
idge	-3207
▁Bl	-3208
train	-3209
anced	-3210
metadata	-3211
▁ensure	-3212
iver	-3213
▁political	-3214
xx	-3215
bed	-3216
avor	-3217
▁HT	-3218
▁practice	-3219
▁bit	-3220
osis	-3221
yield	-3222
▁remove	-3223
abet	-3224
▁Aust	-3225
▁skin	-3226
▁increased	-3227
vey	-3228
▁York	-3229
▁mor	-3230
atal	-3231
tmp	-3232
▁TO	-3233
asc	-3234
▁dtype	-3235
exit	-3236
▁ability	-3237
▁approach	-3238
MA	-3239
▁unique	-3240
▁GL	-3241
▁fire	-3242
▁explo	-3243
▁media	-3244
▁update	-3245
▁kw	-3246
▁understanding	-3247
istics	-3248
▁State	-3249
▁exten	-3250
uster	-3251
▁regular	-3252
▁idea	-3253
▁reading	-3254
ots	-3255
▁histor	-3256
▁parents	-3257
pc	-3258
▁er	-3259
TH	-3260
▁produce	-3261
▁market	-3262
tim	-3263
ialize	-3264
▁famil	-3265
▁stream	-3266
▁talk	-3267
▁written	-3268
▁almost	-3269
▁adult	-3270
void	-3271
▁mach	-3272
▁half	-3273
▁elements	-3274
true	-3275
▁opportun	-3276
cient	-3277
example	-3278
where	-3279
orig	-3280
▁mock	-3281
Qu	-3282
▁coll	-3283
ometry	-3284
▁appear	-3285
▁Exception	-3286
▁Sc	-3287
▁'/	-3288
cert	-3289
Class	-3290
hib	-3291
One	-3292
OL	-3293
nodes	-3294
Ipv	-3295
▁longer	-3296
arge	-3297
▁Dis	-3298
▁recent	-3299
Val	-3300
"],	-3301
▁fig	-3302
]]	-3303
gg	-3304
▁attempt	-3305
▁web	-3306
common	-3307
bose	-3308
▁passed	-3309
▁points	-3310
▁Co	-3311
▁Earth	-3312
dev	-3313
fect	-3314
missions	-3315
▁tensor	-3316
▁concept	-3317
▁measure	-3318
vision	-3319
▁healthy	-3320
▁fish	-3321
▁Foundation	-3322
▁company	-3323
vm	-3324
▁Software	-3325
▁datetime	-3326
Call	-3327
rade	-3328
erved	-3329
▁sense	-3330
▁returned	-3331
cast	-3332
ring	-3333
Tag	-3334
SS	-3335
uly	-3336
▁("	-3337
▁display	-3338
▁safe	-3339
sort	-3340
▁attribute	-3341
dit	-3342
hing	-3343
▁hours	-3344
▁hor	-3345
▁economic	-3346
icles	-3347
▁pie	-3348
▁diet	-3349
▁bal	-3350
▁saf	-3351
▁iter	-3352
('/	-3353
nap	-3354
osp	-3355
▁'\	-3356
▁location	-3357
ULT	-3358
▁positive	-3359
▁took	-3360
men	-3361
▁claim	-3362
▁admin	-3363
igr	-3364
▁ever	-3365
▁analysis	-3366
blank	-3367
respon	-3368
▁''	-3369
late	-3370
strict	-3371
non	-3372
▁"%	-3373
ney	-3374
▁frame	-3375
)/	-3376
▁factors	-3377
aa	-3378
▁Get	-3379
▁money	-3380
▁includes	-3381
ensive	-3382
▁Fe	-3383
pare	-3384
▁maintain	-3385
▁Gu	-3386
{}	-3387
▁thing	-3388
just	-3389
Sub	-3390
▁issue	-3391
rypt	-3392
▁defined	-3393
NAME	-3394
airs	-3395
EL	-3396
▁nor	-3397
▁entry	-3398
"))	-3399
▁essential	-3400
▁contact	-3401
▁complete	-3402
▁arguments	-3403
▁modern	-3404
ius	-3405
xb	-3406
ike	-3407
▁attr	-3408
hash	-3409
ceptions	-3410
▁Research	-3411
NS	-3412
▁included	-3413
So	-3414
stop	-3415
▁filter	-3416
▁cls	-3417
_(	-3418
uel	-3419
▁video	-3420
▁grad	-3421
bor	-3422
aches	-3423
▁months	-3424
EXT	-3425
State	-3426
cf	-3427
▁evalu	-3428
osed	-3429
timeout	-3430
future	-3431
▁additional	-3432
errors	-3433
▁dim	-3434
Date	-3435
▁green	-3436
▁shown	-3437
▁sources	-3438
abit	-3439
▁gas	-3440
web	-3441
"):	-3442
▁defin	-3443
apy	-3444
▁conduct	-3445
▁basic	-3446
▁ca	-3447
▁origin	-3448
▁computer	-3449
▁taking	-3450
ulate	-3451
mary	-3452
▁numbers	-3453
▁assum	-3454
▁began	-3455
(?	-3456
QU	-3457
element	-3458
▁expression	-3459
force	-3460
zone	-3461
pute	-3462
iance	-3463
flags	-3464
▁meaning	-3465
▁["	-3466
'].	-3467
comple	-3468
Item	-3469
)):	-3470
▁throughout	-3471
sample	-3472
erous	-3473
▁FOR	-3474
▁application	-3475
dated	-3476
wo	-3477
▁Pre	-3478
▁>=	-3479
scope	-3480
section	-3481
▁functions	-3482
PRO	-3483
▁After	-3484
▁shows	-3485
▁har	-3486
istance	-3487
indows	-3488
hood	-3489
Ad	-3490
RL	-3491
▁increasing	-3492
▁q	-3493
▁princi	-3494
▁proces	-3495
▁sleep	-3496
▁active	-3497
▁exerci	-3498
▁determin	-3499
conds	-3500
,'	-3501
▁His	-3502
▁online	-3503
izes	-3504
▁hold	-3505
▁primary	-3506
▁intern	-3507
buf	-3508
lambda	-3509
▁parse	-3510
▁simply	-3511
▁ep	-3512
ILITY	-3513
▁medic	-3514
▁popular	-3515
▁chemical	-3516
▁easy	-3517
Le	-3518
▁sat	-3519
idden	-3520
HOUT	-3521
▁matter	-3522
derr	-3523
txt	-3524
▁changed	-3525
▁directly	-3526
▁analy	-3527
see	-3528
▁pers	-3529
bytes	-3530
Pl	-3531
pret	-3532
II	-3533
ada	-3534
aily	-3535
Man	-3536
▁greater	-3537
▁select	-3538
Message	-3539
access	-3540
osph	-3541
▁msg	-3542
▁series	-3543
KE	-3544
atives	-3545
ban	-3546
▁tuple	-3547
ccording	-3548
▁implied	-3549
long	-3550
fol	-3551
ube	-3552
etimes	-3553
mask	-3554
sql	-3555
temp	-3556
▁bool	-3557
oes	-3558
udd	-3559
▁existing	-3560
na	-3561
]))	-3562
▁heat	-3563
▁takes	-3564
▁emer	-3565
▁average	-3566
▁hom	-3567
vention	-3568
volume	-3569
apter	-3570
▁Type	-3571
Inter	-3572
▁der	-3573
▁}	-3574
groups	-3575
▁expect	-3576
▁items	-3577
▁discover	-3578
▁experim	-3579
ship	-3580
▁returns	-3581
istration	-3582
dri	-3583
▁temperature	-3584
▁prior	-3585
xf	-3586
▁features	-3587
▁contribut	-3588
▁British	-3589
▁memory	-3590
▁scre	-3591
xe	-3592
▁Ans	-3593
attle	-3594
lor	-3595
direct	-3596
▁appropri	-3597
erate	-3598
▁draw	-3599
▁Min	-3600
ederal	-3601
board	-3602
starts	-3603
display	-3604
exists	-3605
▁respect	-3606
▁individuals	-3607
ulations	-3608
▁deep	-3609
sence	-3610
total	-3611
▁allows	-3612
ha	-3613
▁WITHOUT	-3614
▁variable	-3615
execute	-3616
ana	-3617
▁causes	-3618
reng	-3619
▁Pe	-3620
licenses	-3621
▁mag	-3622
▁AND	-3623
▁dem	-3624
enced	-3625
▁stress	-3626
▁focus	-3627
lying	-3628
▁save	-3629
CR	-3630
▁predict	-3631
▁doing	-3632
rought	-3633
▁got	-3634
lation	-3635
real	-3636
hent	-3637
exception	-3638
ores	-3639
MS	-3640
▁caused	-3641
ixt	-3642
%(	-3643
▁track	-3644
tree	-3645
TO	-3646
het	-3647
erv	-3648
▁environmental	-3649
ming	-3650
oss	-3651
style	-3652
▁integr	-3653
▁named	-3654
▁tax	-3655
normal	-3656
▁industry	-3657
▁bring	-3658
etic	-3659
▁viol	-3660
▁Jew	-3661
▁heav	-3662
job	-3663
ensions	-3664
roy	-3665
▁tim	-3666
▁identify	-3667
Module	-3668
▁python	-3669
iation	-3670
View	-3671
▁estim	-3672
ford	-3673
▁diagn	-3674
writ	-3675
▁designed	-3676
▁share	-3677
Handler	-3678
▁continue	-3679
gle	-3680
Response	-3681
Size	-3682
▁pan	-3683
warn	-3684
▁Jap	-3685
grad	-3686
ATION	-3687
uses	-3688
▁autom	-3689
Run	-3690
stitute	-3691
▁inside	-3692
ided	-3693
▁society	-3694
CS	-3695
▁While	-3696
Trans	-3697
▁outside	-3698
arily	-3699
offset	-3700
irection	-3701
▁lives	-3702
▁My	-3703
▁consist	-3704
▁running	-3705
conn	-3706
▁false	-3707
▁bad	-3708
▁surv	-3709
Py	-3710
ners	-3711
▁ID	-3712
▁except	-3713
▁programs	-3714
prov	-3715
aling	-3716
▁determine	-3717
weight	-3718
▁Mon	-3719
▁rep	-3720
constructor	-3721
full	-3722
▁graph	-3723
▁exam	-3724
tx	-3725
▁sometimes	-3726
astic	-3727
term	-3728
▁sex	-3729
▁constant	-3730
exc	-3731
▁Reg	-3732
▁column	-3733
▁Key	-3734
ools	-3735
▁regard	-3736
▁face	-3737
▁requires	-3738
extra	-3739
UU	-3740
▁music	-3741
estamp	-3742
▁apply	-3743
Fact	-3744
▁title	-3745
▁Free	-3746
xc	-3747
ufact	-3748
compile	-3749
unch	-3750
▁parameters	-3751
IES	-3752
▁School	-3753
rt	-3754
iven	-3755
bool	-3756
▁benefits	-3757
ifest	-3758
icon	-3759
▁mechan	-3760
XX	-3761
batch	-3762
thread	-3763
layer	-3764
duc	-3765
iet	-3766
▁ip	-3767
▁lack	-3768
><	-3769
MO	-3770
▁Check	-3771
Info	-3772
▁database	-3773
▁love	-3774
oke	-3775
▁farm	-3776
zer	-3777
▁Use	-3778
▁convert	-3779
▁pick	-3780
▁fund	-3781
ellow	-3782
uri	-3783
▁variety	-3784
▁probably	-3785
oreign	-3786
▁reported	-3787
▁concern	-3788
▁cit	-3789
▁Red	-3790
bsite	-3791
tk	-3792
▁style	-3793
▁auth	-3794
▁security	-3795
▁db	-3796
yl	-3797
global	-3798
▁Me	-3799
include	-3800
ounded	-3801
sm	-3802
look	-3803
handler	-3804
▁empty	-3805
gricult	-3806
wait	-3807
▁assess	-3808
manager	-3809
Create	-3810
▁logging	-3811
alled	-3812
Group	-3813
▁believe	-3814
ples	-3815
▁math	-3816
Count	-3817
ronic	-3818
▁...	-3819
startswith	-3820
nov	-3821
Event	-3822
ecause	-3823
▁spread	-3824
▁compl	-3825
raint	-3826
▁schools	-3827
cap	-3828
▁fru	-3829
URL	-3830
▁tools	-3831
▁tool	-3832
▁review	-3833
▁threat	-3834
aly	-3835
axis	-3836
ucle	-3837
prec	-3838
pha	-3839
▁allowed	-3840
▁users	-3841
inv	-3842
▁assign	-3843
solute	-3844
▁numpy	-3845
▁answer	-3846
▁squ	-3847
Element	-3848
▁fem	-3849
buffer	-3850
▁poor	-3851
▁led	-3852
gor	-3853
▁mo	-3854
ilder	-3855
det	-3856
▁earth	-3857
Gener	-3858
▁movement	-3859
rench	-3860
▁via	-3861
▁ful	-3862
CC	-3863
ABILITY	-3864
---	-3865
called	-3866
▁header	-3867
▁culture	-3868
▁eat	-3869
▁negative	-3870
stdout	-3871
▁sample	-3872
▁bacter	-3873
ros	-3874
▁camp	-3875
▁thread	-3876
____	-3877
rict	-3878
▁getting	-3879
Args	-3880
efore	-3881
']:	-3882
▁hol	-3883
words	-3884
vant	-3885
servation	-3886
▁reach	-3887
nc	-3888
=(	-3889
▁register	-3890
=%	-3891
▁err	-3892
▁demon	-3893
▁errors	-3894
rapper	-3895
QL	-3896
▁helps	-3897
▁join	-3898
▁milit	-3899
▁carbon	-3900
▁eth	-3901
mitted	-3902
▁King	-3903
']['	-3904
▁▁▁	-3905
alle	-3906
ORT	-3907
▁inj	-3908
▁images	-3909
uous	-3910
bt	-3911
▁Sup	-3912
▁involved	-3913
pi	-3914
amic	-3915
▁util	-3916
CK	-3917
▁email	-3918
Per	-3919
uuid	-3920
▁compan	-3921
ABLE	-3922
mun	-3923
rong	-3924
idx	-3925
ography	-3926
▁produced	-3927
▁obser	-3928
▁suffer	-3929
▁started	-3930
ony	-3931
▁Count	-3932
rant	-3933
classes	-3934
▁mis	-3935
▁pict	-3936
plot	-3937
▁testing	-3938
▁final	-3939
flict	-3940
.')	-3941
ported	-3942
coming	-3943
▁slow	-3944
▁Part	-3945
▁exact	-3946
▁handle	-3947
ordin	-3948
▁feature	-3949
rest	-3950
covery	-3951
virtual	-3952
https	-3953
▁looking	-3954
oring	-3955
UM	-3956
]),	-3957
({	-3958
erve	-3959
▁encou	-3960
DS	-3961
▁params	-3962
▁difference	-3963
▁scientists	-3964
▁collect	-3965
▁template	-3966
▁scale	-3967
.")	-3968
▁generally	-3969
▁password	-3970
ality	-3971
▁kwargs	-3972
▁foods	-3973
▁official	-3974
Many	-3975
▁Austral	-3976
room	-3977
▁deli	-3978
▁forest	-3979
iting	-3980
▁flo	-3981
▁reference	-3982
artment	-3983
▁immedi	-3984
▁drink	-3985
Aut	-3986
ustain	-3987
addr	-3988
▁harm	-3989
▁streng	-3990
▁independ	-3991
ATIN	-3992
▁dictionary	-3993
▁capt	-3994
▁modify	-3995
▁private	-3996
ament	-3997
▁tri	-3998
gorith	-3999
Index	-4000
bot	-4001
▁damage	-4002
lished	-4003
case	-4004
imately	-4005
▁Science	-4006
asons	-4007
▁coding	-4008
▁particularly	-4009
▁attention	-4010
PR	-4011
▁Will	-4012
Default	-4013
▁Set	-4014
▁script	-4015
unittest	-4016
IONS	-4017
▁wild	-4018
▁sou	-4019
ancy	-4020
▁cook	-4021
▁India	-4022
left	-4023
initial	-4024
FOR	-4025
greg	-4026
▁dir	-4027
▁sea	-4028
▁install	-4029
▁compet	-4030
▁developing	-4031
▁whose	-4032
itable	-4033
▁supported	-4034
▁demonstr	-4035
volution	-4036
▁parameter	-4037
(-	-4038
▁rules	-4039
logging	-4040
▁Ansible	-4041
▁containing	-4042
▁member	-4043
▁altern	-4044
des	-4045
aset	-4046
icate	-4047
▁operation	-4048
lands	-4049
▁third	-4050
▁animal	-4051
▁optional	-4052
▁pattern	-4053
handle	-4054
Integer	-4055
control	-4056
▁getattr	-4057
▁info	-4058
▁thus	-4059
ca	-4060
▁bott	-4061
usr	-4062
zz	-4063
scale	-4064
▁performance	-4065
▁safety	-4066
▁Pres	-4067
▁NOT	-4068
▁Jan	-4069
▁aud	-4070
auto	-4071
login	-4072
dec	-4073
isions	-4074
plicit	-4075
▁Am	-4076
▁description	-4077
▁serious	-4078
▁therefore	-4079
ington	-4080
multi	-4081
▁currently	-4082
▁aware	-4083
sect	-4084
▁emot	-4085
bb	-4086
acters	-4087
pay	-4088
▁growing	-4089
▁distribution	-4090
▁layer	-4091
asic	-4092
▁inc	-4093
▁ideas	-4094
▁someone	-4095
ran	-4096
profile	-4097
')])	-4098
UB	-4099
▁Many	-4100
▁decre	-4101
▁lambda	-4102
▁psych	-4103
▁properties	-4104
ils	-4105
▁appropriate	-4106
▁China	-4107
iam	-4108
▁Ed	-4109
irit	-4110
▁collection	-4111
▁express	-4112
haps	-4113
▁guide	-4114
▁volume	-4115
stats	-4116
▁teachers	-4117
▁walk	-4118
▁creating	-4119
License	-4120
▁challeng	-4121
skip	-4122
▁easily	-4123
▁poss	-4124
▁Ste	-4125
olec	-4126
▁calcul	-4127
▁cou	-4128
▁Aug	-4129
▁<=	-4130
sv	-4131
Fe	-4132
▁Val	-4133
rows	-4134
fit	-4135
Pre	-4136
ades	-4137
▁compared	-4138
▁actual	-4139
▁Char	-4140
eq	-4141
sely	-4142
▁CO	-4143
▁ago	-4144
▁sil	-4145
▁earli	-4146
▁larger	-4147
▁axis	-4148
TYPE	-4149
▁front	-4150
▁Center	-4151
assertEquals	-4152
▁night	-4153
▁quant	-4154
▁Qu	-4155
Dis	-4156
ief	-4157
▁Art	-4158
▁feet	-4159
▁patient	-4160
▁Cor	-4161
▁detect	-4162
itting	-4163
report	-4164
tags	-4165
nes	-4166
rew	-4167
▁sche	-4168
▁veget	-4169
▁note	-4170
▁wood	-4171
tensor	-4172
oder	-4173
xd	-4174
SD	-4175
▁Trans	-4176
Lo	-4177
render	-4178
features	-4179
▁nothing	-4180
dep	-4181
clean	-4182
ERR	-4183
igration	-4184
▁international	-4185
this	-4186
acity	-4187
▁deci	-4188
▁wait	-4189
stract	-4190
pan	-4191
Ext	-4192
▁daily	-4193
eding	-4194
AA	-4195
▁manufact	-4196
▁foot	-4197
▁electric	-4198
▁cross	-4199
▁progress	-4200
▁seems	-4201
▁failed	-4202
▁beginning	-4203
Tests	-4204
▁quite	-4205
cos	-4206
▁Def	-4207
Int	-4208
ience	-4209
uman	-4210
▁Jes	-4211
▁null	-4212
pring	-4213
▁String	-4214
▁eye	-4215
▁store	-4216
▁setting	-4217
bal	-4218
LIC	-4219
atus	-4220
▁render	-4221
▁devices	-4222
ancial	-4223
▁isn	-4224
▁expert	-4225
▁kids	-4226
▁prop	-4227
▁bound	-4228
oken	-4229
▁More	-4230
▁generate	-4231
▁cop	-4232
▁sug	-4233
▁classes	-4234
▁kil	-4235
abetes	-4236
tf	-4237
sive	-4238
▁URL	-4239
Read	-4240
▁variables	-4241
gment	-4242
rand	-4243
▁hyd	-4244
▁ste	-4245
▁dang	-4246
▁utf	-4247
▁comment	-4248
anks	-4249
repr	-4250
▁compar	-4251
▁exists	-4252
▁domain	-4253
uge	-4254
shot	-4255
Vari	-4256
▁Att	-4257
urt	-4258
▁hot	-4259
"\	-4260
setup	-4261
PAT	-4262
desc	-4263
space	-4264
▁books	-4265
▁concent	-4266
▁established	-4267
▁anything	-4268
NO	-4269
inct	-4270
▁leading	-4271
BU	-4272
▁fast	-4273
▁dry	-4274
▁Educ	-4275
ava	-4276
▁trees	-4277
▁minutes	-4278
resses	-4279
uk	-4280
install	-4281
iler	-4282
Loc	-4283
ula	-4284
▁wall	-4285
▁configuration	-4286
▁supply	-4287
▁East	-4288
▁traditional	-4289
ync	-4290
era	-4291
▁Your	-4292
record	-4293
oe	-4294
oreignKey	-4295
wd	-4296
▁held	-4297
▁First	-4298
HTTP	-4299
IZ	-4300
LOG	-4301
callback	-4302
aught	-4303
▁communities	-4304
▁replace	-4305
she	-4306
iforn	-4307
Ptr	-4308
Pack	-4309
▁'__	-4310
▁leaders	-4311
▁accur	-4312
▁warm	-4313
▁mom	-4314
FAULT	-4315
▁System	-4316
▁prefix	-4317
▁ast	-4318
olar	-4319
▁sound	-4320
ulated	-4321
ATA	-4322
▁mental	-4323
vars	-4324
▁instit	-4325
****************	-4326
encoding	-4327
▁bur	-4328
▁win	-4329
▁investig	-4330
▁dev	-4331
▁Ac	-4332
decode	-4333
▁mount	-4334
orders	-4335
▁Sm	-4336
▁hasattr	-4337
)[	-4338
.*	-4339
▁bab	-4340
▁Ag	-4341
▁ones	-4342
▁aspect	-4343
ama	-4344
▁Ob	-4345
vals	-4346
▁quickly	-4347
▁theory	-4348
]+	-4349
llib	-4350
▁Lib	-4351
Pr	-4352
▁Inc	-4353
▁unicode	-4354
eline	-4355
▁raw	-4356
▁tend	-4357
▁Rep	-4358
issue	-4359
]['	-4360
DB	-4361
Content	-4362
▁game	-4363
produ	-4364
▁platform	-4365
▁thous	-4366
▁solar	-4367
plugin	-4368
Result	-4369
eric	-4370
tab	-4371
dum	-4372
▁Most	-4373
ferred	-4374
ialog	-4375
onom	-4376
▁center	-4377
Factory	-4378
▁sal	-4379
▁companies	-4380
:%	-4381
ValueError	-4382
▁rout	-4383
environ	-4384
▁vacc	-4385
'},	-4386
▁sequence	-4387
race	-4388
▁speed	-4389
DF	-4390
itation	-4391
▁Institute	-4392
labels	-4393
▁proced	-4394
▁military	-4395
useum	-4396
wer	-4397
insert	-4398
▁{"	-4399
▁mult	-4400
Str	-4401
▁speak	-4402
rack	-4403
▁hy	-4404
rid	-4405
▁Inter	-4406
▁went	-4407
New	-4408
ensity	-4409
▁User	-4410
ifornia	-4411
▁achieve	-4412
:]	-4413
(['	-4414
▁card	-4415
▁French	-4416
▁poll	-4417
ENSE	-4418
contain	-4419
▁extension	-4420
attrs	-4421
fake	-4422
semb	-4423
▁behind	-4424
▁examples	-4425
></	-4426
▁families	-4427
Hel	-4428
edia	-4429
▁birth	-4430
mar	-4431
math	-4432
diff	-4433
igger	-4434
dt	-4435
more	-4436
▁headers	-4437
▁civil	-4438
▁https	-4439
▁everything	-4440
▁diseases	-4441
▁'-	-4442
▁Other	-4443
policy	-4444
oll	-4445
▁nation	-4446
▁SM	-4447
▁central	-4448
▁fa	-4449
attributes	-4450
▁exercise	-4451
▁described	-4452
iency	-4453
▁labor	-4454
▁humans	-4455
opts	-4456
uest	-4457
▁soon	-4458
Ph	-4459
▁road	-4460
unicode	-4461
▁scientific	-4462
Rec	-4463
▁interface	-4464
▁vit	-4465
Lay	-4466
elt	-4467
▁limited	-4468
Oper	-4469
rees	-4470
zip	-4471
▁tele	-4472
▁lost	-4473
▁although	-4474
▁highly	-4475
Input	-4476
▁European	-4477
oday	-4478
hold	-4479
rage	-4480
).__	-4481
porary	-4482
▁critical	-4483
ctors	-4484
Sc	-4485
enum	-4486
▁flag	-4487
▁Department	-4488
joy	-4489
Implement	-4490
stant	-4491
itect	-4492
▁library	-4493
WAR	-4494
▁Russ	-4495
proto	-4496
▁Indian	-4497
▁notice	-4498
validate	-4499
xa	-4500
▁IP	-4501
▁Child	-4502
▁encoding	-4503
_,	-4504
▁equip	-4505
▁transform	-4506
▁correspon	-4507
Can	-4508
▁travel	-4509
▁places	-4510
iques	-4511
▁commit	-4512
IST	-4513
Client	-4514
▁sus	-4515
▁Also	-4516
abilities	-4517
CONF	-4518
Be	-4519
resp	-4520
cean	-4521
▁middle	-4522
aved	-4523
variable	-4524
▁solution	-4525
Parser	-4526
▁west	-4527
izations	-4528
contrib	-4529
ategy	-4530
div	-4531
unique	-4532
▁transport	-4533
eno	-4534
▁Work	-4535
pril	-4536
▁sco	-4537
RA	-4538
▁symbol	-4539
ernel	-4540
▁fat	-4541
▁Oct	-4542
"])	-4543
▁ten	-4544
▁Her	-4545
▁actions	-4546
▁doctor	-4547
▁applied	-4548
plies	-4549
SH	-4550
'})	-4551
▁monitor	-4552
▁choose	-4553
IND	-4554
▁fight	-4555
delta	-4556
Table	-4557
GET	-4558
site	-4559
rics	-4560
▁Data	-4561
▁towards	-4562
▁ids	-4563
ilk	-4564
▁keys	-4565
MP	-4566
▁decision	-4567
cious	-4568
▁habit	-4569
▁acid	-4570
faces	-4571
fd	-4572
▁hyp	-4573
▁Bo	-4574
▁protein	-4575
▁stay	-4576
▁south	-4577
points	-4578
unt	-4579
parameters	-4580
interface	-4581
▁expos	-4582
cles	-4583
▁cache	-4584
loss	-4585
=['	-4586
widget	-4587
Pos	-4588
▁construct	-4589
ACK	-4590
Output	-4591
.'	-4592
cip	-4593
mac	-4594
▁net	-4595
ilos	-4596
▁otherwise	-4597
▁teaching	-4598
choices	-4599
cil	-4600
isms	-4601
INT	-4602
comment	-4603
▁attributes	-4604
spe	-4605
inese	-4606
AGE	-4607
▁California	-4608
▁]	-4609
ForeignKey	-4610
~~~~	-4611
oto	-4612
tee	-4613
▁drop	-4614
primary	-4615
aid	-4616
uries	-4617
▁weak	-4618
▁situation	-4619
▁remain	-4620
▁largest	-4621
▁den	-4622
▁nucle	-4623
)"	-4624
ologies	-4625
▁fit	-4626
▁removed	-4627
▁processes	-4628
▁ord	-4629
▁repe	-4630
▁Here	-4631
▁March	-4632
rupt	-4633
▁signal	-4634
▁workers	-4635
▁sold	-4636
KEY	-4637
platform	-4638
▁infection	-4639
ouch	-4640
ffix	-4641
▁protection	-4642
▁bytes	-4643
▁interpret	-4644
▁June	-4645
▁reve	-4646
illing	-4647
▁website	-4648
These	-4649
▁steps	-4650
ying	-4651
▁Sw	-4652
rab	-4653
enge	-4654
▁execut	-4655
▁assert	-4656
Parameters	-4657
▁gives	-4658
oted	-4659
arian	-4660
▁gard	-4661
dates	-4662
▁dead	-4663
▁sn	-4664
▁north	-4665
▁basis	-4666
Dele	-4667
▁aim	-4668
▁located	-4669
Ref	-4670
cursor	-4671
Line	-4672
▁box	-4673
▁Import	-4674
▁goal	-4675
roller	-4676
ico	-4677
▁news	-4678
▁typically	-4679
stderr	-4680
children	-4681
▁%(	-4682
ober	-4683
Context	-4684
atin	-4685
▁thinking	-4686
imin	-4687
▁Now	-4688
////////	-4689
Ent	-4690
▁becomes	-4691
extend	-4692
rome	-4693
rical	-4694
added	-4695
▁std	-4696
▁strateg	-4697
▁capital	-4698
▁choice	-4699
nother	-4700
▁clin	-4701
▁Sy	-4702
▁Jesus	-4703
Ns	-4704
cons	-4705
▁internal	-4706
EC	-4707
▁xml	-4708
▁African	-4709
UD	-4710
▁Har	-4711
▁International	-4712
eval	-4713
▁followed	-4714
▁bul	-4715
▁deal	-4716
({'	-4717
height	-4718
▁Int	-4719
▁August	-4720
▁Although	-4721
_.	-4722
▁Dav	-4723
▁characters	-4724
▁machine	-4725
MM	-4726
cohol	-4727
▁rock	-4728
▁Bu	-4729
▁ancient	-4730
hest	-4731
Some	-4732
▁Des	-4733
▁projects	-4734
ham	-4735
argv	-4736
kens	-4737
NESS	-4738
▁From	-4739
compute	-4740
▁Christian	-4741
▁package	-4742
={	-4743
▁season	-4744
▁Mus	-4745
▁tf	-4746
▁Rem	-4747
iny	-4748
Desc	-4749
exist	-4750
▁enum	-4751
▁History	-4752
▁agreed	-4753
lers	-4754
▁adapt	-4755
Pol	-4756
Source	-4757
▁socket	-4758
brow	-4759
▁receive	-4760
VAL	-4761
driver	-4762
SON	-4763
▁Make	-4764
▁Open	-4765
atically	-4766
▁Gree	-4767
▁void	-4768
package	-4769
fp	-4770
terns	-4771
TEST	-4772
Rem	-4773
▁hund	-4774
▁trying	-4775
▁brought	-4776
▁Create	-4777
▁carry	-4778
rogen	-4779
▁City	-4780
▁leaves	-4781
▁dark	-4782
elling	-4783
IF	-4784
iot	-4785
aur	-4786
▁generated	-4787
columns	-4788
Of	-4789
▁Sept	-4790
samples	-4791
methods	-4792
▁stage	-4793
▁records	-4794
▁tensorflow	-4795
▁seek	-4796
/%	-4797
ULAR	-4798
▁influence	-4799
clear	-4800
▁financial	-4801
IGHT	-4802
Arg	-4803
hook	-4804
▁conflict	-4805
▁adults	-4806
▁sustain	-4807
▁successful	-4808
▁storage	-4809
water	-4810
▁mill	-4811
▁Press	-4812
properties	-4813
abc	-4814
▁enjoy	-4815
Valid	-4816
public	-4817
schema	-4818
▁FIT	-4819
▁height	-4820
issions	-4821
▁fib	-4822
views	-4823
▁remains	-4824
ech	-4825
▁rates	-4826
▁rain	-4827
▁Version	-4828
rote	-4829
andid	-4830
AY	-4831
▁establish	-4832
role	-4833
aul	-4834
POSE	-4835
▁Africa	-4836
▁mention	-4837
▁jud	-4838
▁window	-4839
clus	-4840
▁hands	-4841
▁PART	-4842
CP	-4843
ribution	-4844
roid	-4845
Child	-4846
▁applications	-4847
ios	-4848
mean	-4849
anc	-4850
▁cam	-4851
modules	-4852
▁API	-4853
messages	-4854
ingu	-4855
▁veh	-4856
▁Tem	-4857
gu	-4858
▁imag	-4859
▁wrong	-4860
sens	-4861
ares	-4862
▁older	-4863
house	-4864
▁Park	-4865
▁digital	-4866
▁mid	-4867
▁waste	-4868
▁construction	-4869
▁comb	-4870
▁broad	-4871
atur	-4872
▁instr	-4873
▁flu	-4874
▁cele	-4875
▁release	-4876
▁sel	-4877
idents	-4878
ERCH	-4879
”.	-4880
erg	-4881
▁Rob	-4882
▁II	-4883
proxy	-4884
reme	-4885
▁costs	-4886
▁Read	-4887
ado	-4888
which	-4889
▁sites	-4890
▁weeks	-4891
▁agricult	-4892
▁July	-4893
press	-4894
▁neigh	-4895
ERCHANT	-4896
▁communication	-4897
img	-4898
la	-4899
▁Ret	-4900
▁smaller	-4901
▁Web	-4902
▁trade	-4903
▁delete	-4904
▁List	-4905
▁sugar	-4906
road	-4907
▁operations	-4908
▁restrict	-4909
▁saw	-4910
▁patterns	-4911
▁beaut	-4912
olic	-4913
▁told	-4914
URPOSE	-4915
▁perfect	-4916
ules	-4917
▁ult	-4918
▁burn	-4919
▁importance	-4920
▁nearly	-4921
▁Ant	-4922
limit	-4923
FL	-4924
▁bacteria	-4925
reet	-4926
fetch	-4927
bind	-4928
▁LATIN	-4929
hemat	-4930
▁behavi	-4931
otes	-4932
▁Sch	-4933
▁reasons	-4934
users	-4935
Ab	-4936
▁FITNESS	-4937
Point	-4938
success	-4939
mm	-4940
Command	-4941
gorithm	-4942
/>	-4943
▁protocol	-4944
life	-4945
▁distance	-4946
▁factor	-4947
Server	-4948
▁PARTIC	-4949
Number	-4950
ishing	-4951
▁Associ	-4952
ession	-4953
video	-4954
ashington	-4955
inputs	-4956
#!	-4957
istant	-4958
▁responsible	-4959
▁El	-4960
▁ST	-4961
los	-4962
hy	-4963
▁prim	-4964
tuple	-4965
▁approx	-4966
anded	-4967
outfile	-4968
expr	-4969
▁PARTICULAR	-4970
▁religious	-4971
▁remember	-4972
mi	-4973
▁leave	-4974
▁April	-4975
▁PURPOSE	-4976
odies	-4977
attribute	-4978
▁anti	-4979
▁legal	-4980
▁River	-4981
▁Mc	-4982
napshot	-4983
▁occurs	-4984
Callback	-4985
▁timeout	-4986
▁Chinese	-4987
OK	-4988
parts	-4989
ERROR	-4990
Bo	-4991
Start	-4992
Code	-4993
▁forces	-4994
▁Sub	-4995
▁contra	-4996
SA	-4997
▁absolute	-4998
Fl	-4999
▁efforts	-5000
▁providing	-5001
▁raised	-5002
di	-5003
;":	-5004
rf	-5005
▁discussion	-5006
▁Americans	-5007
▁static	-5008
▁rou	-5009
▁vict	-5010
ested	-5011
ERCHANTABILITY	-5012
▁lab	-5013
ino	-5014
▁goes	-5015
sequence	-5016
▁direction	-5017
▁organization	-5018
▁mut	-5019
ibly	-5020
dig	-5021
▁east	-5022
▁UN	-5023
invalid	-5024
ica	-5025
▁Govern	-5026
▁bey	-5027
▁himself	-5028
BO	-5029
▁Develop	-5030
raises	-5031
▁components	-5032
zing	-5033
after	-5034
▁beyond	-5035
▁cat	-5036
▁Name	-5037
factory	-5038
▁Comp	-5039
serial	-5040
atio	-5041
▁citiz	-5042
▁eating	-5043
▁Cong	-5044
▁Day	-5045
▁degree	-5046
▁teacher	-5047
▁room	-5048
▁asked	-5049
▁'_	-5050
▁rapid	-5051
▁techniques	-5052
safe	-5053
Tem	-5054
▁repl	-5055
cat	-5056
▁miles	-5057
▁license	-5058
▁colon	-5059
cember	-5060
channel	-5061
").	-5062
▁born	-5063
▁emb	-5064
ME	-5065
▁didn	-5066
grid	-5067
power	-5068
▁forward	-5069
▁ship	-5070
▁inform	-5071
▁ut	-5072
loads	-5073
▁mother	-5074
▁completely	-5075
▁eyes	-5076
▁commer	-5077
inc	-5078
PS	-5079
Dec	-5080
▁molec	-5081
▁incor	-5082
▁selected	-5083
▁practices	-5084
▁rare	-5085
Meta	-5086
▁messages	-5087
▁Tr	-5088
olve	-5089
rael	-5090
rency	-5091
▁wind	-5092
estic	-5093
assertFalse	-5094
▁friend	-5095
HER	-5096
AND	-5097
icies	-5098
many	-5099
▁therapy	-5100
▁units	-5101
▁coast	-5102
Manager	-5103
▁matrix	-5104
socket	-5105
Image	-5106
plications	-5107
Ind	-5108
▁HTTP	-5109
`,	-5110
DIR	-5111
Map	-5112
▁advant	-5113
ellig	-5114
anese	-5115
aj	-5116
End	-5117
apes	-5118
▁died	-5119
▁son	-5120
▁recently	-5121
Device	-5122
▁federal	-5123
__,	-5124
▁Education	-5125
ocr	-5126
▁beg	-5127
▁Then	-5128
▁England	-5129
igen	-5130
pir	-5131
container	-5132
gp	-5133
xi	-5134
Box	-5135
ovember	-5136
▁Str	-5137
▁Bar	-5138
ECT	-5139
short	-5140
matrix	-5141
▁permissions	-5142
▁cultural	-5143
▁extract	-5144
▁Techn	-5145
▁fully	-5146
▁visual	-5147
▁WARRANTIES	-5148
▁failure	-5149
▁Canada	-5150
▁affected	-5151
Service	-5152
▁dog	-5153
FO	-5154
▁offset	-5155
▁Vir	-5156
ondon	-5157
▁severe	-5158
▁differences	-5159
that	-5160
iling	-5161
▁hash	-5162
▁earlier	-5163
▁reflect	-5164
Connection	-5165
▁spirit	-5166
ctx	-5167
move	-5168
ifies	-5169
▁core	-5170
▁destroy	-5171
aign	-5172
free	-5173
▁starting	-5174
Mock	-5175
engine	-5176
phas	-5177
ilosoph	-5178
▁enter	-5179
urity	-5180
▁implementation	-5181
iar	-5182
▁summer	-5183
▁diabetes	-5184
ouncil	-5185
▁purch	-5186
▁shall	-5187
While	-5188
storage	-5189
fill	-5190
ector	-5191
Invalid	-5192
icks	-5193
▁Journal	-5194
uit	-5195
war	-5196
▁Sec	-5197
▁Rec	-5198
▁desc	-5199
commit	-5200
predict	-5201
ocket	-5202
aint	-5203
mes	-5204
rieved	-5205
PATH	-5206
▁definition	-5207
ORD	-5208
loader	-5209
▁Book	-5210
window	-5211
ASS	-5212
----------	-5213
pattern	-5214
inds	-5215
ba	-5216
▁Lear	-5217
Iter	-5218
▁Google	-5219
mo	-5220
▁dyn	-5221
▁strings	-5222
PA	-5223
IGN	-5224
ificate	-5225
▁President	-5226
After	-5227
▁January	-5228
aled	-5229
▁ice	-5230
verbose	-5231
amily	-5232
wide	-5233
▁benefit	-5234
ttp	-5235
▁remote	-5236
itis	-5237
▁constit	-5238
▁Nor	-5239
▁TODO	-5240
Down	-5241
▁alone	-5242
iful	-5243
found	-5244
▁statement	-5245
▁func	-5246
▁placed	-5247
sur	-5248
▁yourself	-5249
Do	-5250
js	-5251
Part	-5252
▁Even	-5253
ACT	-5254
anges	-5255
▁separate	-5256
-%	-5257
mosph	-5258
edom	-5259
▁San	-5260
▁secret	-5261
rs	-5262
ira	-5263
▁everyone	-5264
▁double	-5265
DEFAULT	-5266
▁native	-5267
▁Since	-5268
compat	-5269
▁Our	-5270
▁SMALL	-5271
▁reverse	-5272
iders	-5273
grade	-5274
▁Commun	-5275
▁king	-5276
▁price	-5277
entity	-5278
ixture	-5279
▁stri	-5280
isted	-5281
▁appears	-5282
▁reduced	-5283
istor	-5284
▁binary	-5285
▁parser	-5286
score	-5287
indices	-5288
▁opportunity	-5289
▁planet	-5290
▁creation	-5291
▁Washington	-5292
▁laws	-5293
▁Ass	-5294
eek	-5295
▁High	-5296
▁ansible	-5297
tz	-5298
▁former	-5299
▁standards	-5300
▁fear	-5301
▁del	-5302
▁norm	-5303
lan	-5304
IX	-5305
▁interesting	-5306
Action	-5307
▁cool	-5308
▁'',	-5309
▁width	-5310
▁topic	-5311
▁und	-5312
▁Don	-5313
▁Black	-5314
▁recommend	-5315
▁September	-5316
)*	-5317
Frame	-5318
▁moment	-5319
▁overall	-5320
▁Apache	-5321
▁Group	-5322
▁Up	-5323
▁redist	-5324
▁fr	-5325
transform	-5326
tended	-5327
SC	-5328
wrap	-5329
▁copyright	-5330
▁Environment	-5331
▁hon	-5332
▁rich	-5333
▁Arch	-5334
▁Church	-5335
Widget	-5336
INE	-5337
convert	-5338
▁Fin	-5339
▁identified	-5340
▁applicable	-5341
loop	-5342
ntax	-5343
STR	-5344
▁extrem	-5345
#!/	-5346
▁celebr	-5347
▁gets	-5348
export	-5349
▁teeth	-5350
stances	-5351
▁mask	-5352
structure	-5353
▁limitations	-5354
▁economy	-5355
▁integer	-5356
▁demand	-5357
▁occup	-5358
▁coming	-5359
▁calls	-5360
▁commonly	-5361
▁connected	-5362
ii	-5363
▁swe	-5364
ifiers	-5365
rays	-5366
▁Law	-5367
Query	-5368
▁wrote	-5369
▁October	-5370
▁continued	-5371
span	-5372
▁figure	-5373
▁processing	-5374
norm	-5375
▁woman	-5376
▁exposure	-5377
▁Israel	-5378
Auto	-5379
Instance	-5380
▁maximum	-5381
▁warrant	-5382
▁aff	-5383
▁happen	-5384
track	-5385
posit	-5386
▁cold	-5387
▁missing	-5388
▁equipment	-5389
▁Sun	-5390
▁glob	-5391
acing	-5392
▁pet	-5393
('\	-5394
anguages	-5395
sq	-5396
▁pages	-5397
)'	-5398
ospital	-5399
▁fuel	-5400
▁professional	-5401
va	-5402
▁Fl	-5403
▁moving	-5404
▁master	-5405
▁Program	-5406
▁According	-5407
cfg	-5408
Variable	-5409
▁upper	-5410
▁component	-5411
pb	-5412
▁Over	-5413
▁arri	-5414
isher	-5415
Implemented	-5416
paths	-5417
▁samples	-5418
isation	-5419
custom	-5420
▁nodes	-5421
▁gold	-5422
▁Each	-5423
▁birds	-5424
▁inher	-5425
vs	-5426
▁Sim	-5427
▁watch	-5428
iat	-5429
▁ow	-5430
assertIs	-5431
▁virus	-5432
prop	-5433
▁Great	-5434
▁geometry	-5435
application	-5436
Header	-5437
double	-5438
▁CAP	-5439
▁Mat	-5440
under	-5441
▁winter	-5442
icip	-5443
▁compliance	-5444
▁sched	-5445
▁Rights	-5446
▁immediately	-5447
▁discovered	-5448
▁division	-5449
angle	-5450
"}	-5451
tection	-5452
▁efficient	-5453
igation	-5454
▁unknown	-5455
__)	-5456
▁mob	-5457
urred	-5458
TypeId	-5459
▁billion	-5460
▁father	-5461
urg	-5462
▁weather	-5463
▁Project	-5464
▁measures	-5465
▁buffer	-5466
Page	-5467
Fil	-5468
▁strength	-5469
▁presence	-5470
▁blue	-5471
▁documentation	-5472
▁Br	-5473
Process	-5474
')],	-5475
▁properly	-5476
▁WARRANTY	-5477
▁Sk	-5478
▁rot	-5479
▁choices	-5480
▁'--	-5481
bruary	-5482
)',	-5483
Simple	-5484
▁Roman	-5485
ription	-5486
▁gir	-5487
▁Just	-5488
language	-5489
▁flat	-5490
tools	-5491
▁disable	-5492
()[	-5493
▁TypeError	-5494
ographic	-5495
Tensor	-5496
▁toward	-5497
binary	-5498
▁drugs	-5499
▁staff	-5500
▁piece	-5501
▁pregn	-5502
cluded	-5503
rief	-5504
▁formed	-5505
ferences	-5506
▁Because	-5507
Version	-5508
▁genetic	-5509
▁County	-5510
▁Ro	-5511
▁perhaps	-5512
bad	-5513
▁joint	-5514
▁Mo	-5515
ali	-5516
▁poly	-5517
FT	-5518
second	-5519
warning	-5520
▁fair	-5521
partner	-5522
(__	-5523
▁treated	-5524
bi	-5525
zen	-5526
▁pip	-5527
ERS	-5528
ustr	-5529
▁December	-5530
▁Run	-5531
("%	-5532
▁enh	-5533
pared	-5534
▁warn	-5535
DC	-5536
orge	-5537
ITAL	-5538
'][	-5539
organ	-5540
Ge	-5541
▁alcohol	-5542
Open	-5543
▁Er	-5544
dirname	-5545
anted	-5546
aters	-5547
▁fruit	-5548
▁"/	-5549
▁foreign	-5550
Note	-5551
crete	-5552
");	-5553
▁Of	-5554
▁journal	-5555
lookup	-5556
My	-5557
▁deliver	-5558
▁zero	-5559
('%	-5560
Option	-5561
▁letter	-5562
▁historical	-5563
release	-5564
▁unittest	-5565
▁shared	-5566
'%	-5567
cm	-5568
▁architect	-5569
▁initi	-5570
master	-5571
▁stack	-5572
▁DE	-5573
SER	-5574
enabled	-5575
stud	-5576
created	-5577
category	-5578
publ	-5579
raction	-5580
craft	-5581
▁capacity	-5582
Function	-5583
▁seed	-5584
mbols	-5585
▁namespace	-5586
▁rise	-5587
▁London	-5588
▁giving	-5589
nan	-5590
▁'<	-5591
protocol	-5592
provider	-5593
▁November	-5594
icated	-5595
▁Hol	-5596
trace	-5597
disk	-5598
▁sch	-5599
anish	-5600
▁gave	-5601
▁town	-5602
IME	-5603
glext	-5604
oration	-5605
eff	-5606
▁Are	-5607
▁env	-5608
▁sorted	-5609
earch	-5610
▁People	-5611
!!	-5612
▁showed	-5613
▁church	-5614
commands	-5615
timestamp	-5616
▁powerful	-5617
▁counter	-5618
▁Mark	-5619
indent	-5620
▁..	-5621
▁pp	-5622
{{	-5623
cel	-5624
ROM	-5625
▁Vol	-5626
▁pen	-5627
och	-5628
▁src	-5629
▁compos	-5630
ees	-5631
▁vill	-5632
▁links	-5633
pective	-5634
▁survey	-5635
▁Mex	-5636
▁During	-5637
bound	-5638
seq	-5639
▁trace	-5640
▁tox	-5641
Found	-5642
▁cru	-5643
west	-5644
iform	-5645
itter	-5646
▁gene	-5647
▁majority	-5648
(\	-5649
▁relatively	-5650
PC	-5651
▁container	-5652
▁friends	-5653
ogen	-5654
▁Bi	-5655
▁skip	-5656
▁nutri	-5657
directory	-5658
▁external	-5659
▁[])	-5660
PORT	-5661
▁signs	-5662
dot	-5663
gypt	-5664
aching	-5665
▁respons	-5666
BC	-5667
▁fresh	-5668
constant	-5669
ifying	-5670
feature	-5671
▁reports	-5672
▁increases	-5673
={'	-5674
inf	-5675
(**	-5676
END	-5677
FORM	-5678
inner	-5679
leted	-5680
enty	-5681
▁mac	-5682
▁please	-5683
PT	-5684
Doc	-5685
▁depth	-5686
▁worth	-5687
▁worked	-5688
namespace	-5689
▁insert	-5690
enter	-5691
▁enable	-5692
▁'''	-5693
▁background	-5694
▁resulting	-5695
inder	-5696
iction	-5697
▁CAPITAL	-5698
orial	-5699
Stream	-5700
Dir	-5701
ario	-5702
Build	-5703
([[	-5704
▁lin	-5705
▁gover	-5706
▁stored	-5707
ceed	-5708
usage	-5709
▁debug	-5710
ICE	-5711
▁Society	-5712
ceived	-5713
▁regions	-5714
iring	-5715
▁requirements	-5716
omb	-5717
▁Water	-5718
▁Em	-5719
hs	-5720
▁DNA	-5721
Array	-5722
▁seconds	-5723
tex	-5724
park	-5725
ifically	-5726
quote	-5727
Column	-5728
▁generation	-5729
▁balance	-5730
urb	-5731
▁Union	-5732
▁Dist	-5733
▁WITH	-5734
Ne	-5735
▁bottom	-5736
draw	-5737
prehen	-5738
▁sets	-5739
iable	-5740
▁cities	-5741
actor	-5742
rot	-5743
FN	-5744
company	-5745
ille	-5746
▁atmosph	-5747
ota	-5748
▁pret	-5749
DIT	-5750
Dep	-5751
document	-5752
▁structures	-5753
variables	-5754
▁setUp	-5755
▁channel	-5756
omas	-5757
gery	-5758
▁eg	-5759
▁star	-5760
API	-5761
▁highest	-5762
▁Australia	-5763
ctr	-5764
▁moved	-5765
classmethod	-5766
>\	-5767
▁cast	-5768
▁mal	-5769
cook	-5770
▁round	-5771
▁split	-5772
▁peace	-5773
▁DO	-5774
istr	-5775
oting	-5776
sentry	-5777
▁ing	-5778
▁wel	-5779
alias	-5780
▁offers	-5781
▁cmd	-5782
▁screen	-5783
▁exactly	-5784
▁setup	-5785
ASE	-5786
▁trust	-5787
▁Ext	-5788
]*	-5789
person	-5790
▁cycle	-5791
vas	-5792
apache	-5793
▁House	-5794
chain	-5795
▁stories	-5796
▁Rel	-5797
Packet	-5798
>'	-5799
button	-5800
▁immune	-5801
pal	-5802
▁Note	-5803
▁redistribute	-5804
lick	-5805
annels	-5806
tool	-5807
▁@	-5808
aml	-5809
INTER	-5810
▁mouth	-5811
Ver	-5812
▁AD	-5813
none	-5814
###	-5815
▁PRO	-5816
▁Germany	-5817
▁truth	-5818
cut	-5819
sole	-5820
▁river	-5821
rops	-5822
riving	-5823
▁antib	-5824
▁chance	-5825
▁deb	-5826
XML	-5827
▁KIND	-5828
▁zip	-5829
▁flags	-5830
▁performed	-5831
▁baby	-5832
defined	-5833
▁Inst	-5834
css	-5835
▁insect	-5836
▁female	-5837
folder	-5838
'"	-5839
uplic	-5840
▁strugg	-5841
▁belong	-5842
mal	-5843
▁favor	-5844
▁insp	-5845
▁picture	-5846
▁ready	-5847
▁fill	-5848
▁surround	-5849
DateTime	-5850
IE	-5851
▁Ke	-5852
▁mission	-5853
Back	-5854
repo	-5855
”,	-5856
ixin	-5857
▁ImportError	-5858
▁gain	-5859
▁educational	-5860
security	-5861
▁_("	-5862
▁tasks	-5863
▁challenge	-5864
umes	-5865
ously	-5866
IZE	-5867
▁governing	-5868
rb	-5869
▁Che	-5870
gt	-5871
cloud	-5872
▁auto	-5873
▁temp	-5874
Status	-5875
▁disorder	-5876
antic	-5877
ragment	-5878
▁metadata	-5879
rition	-5880
▁eventually	-5881
▁click	-5882
ategories	-5883
▁evolution	-5884
▁challenges	-5885
marker	-5886
▁Association	-5887
SO	-5888
PER	-5889
home	-5890
nam	-5891
inger	-5892
ifications	-5893
▁alternative	-5894
▁lett	-5895
▁bank	-5896
plt	-5897
IntegerField	-5898
then	-5899
[:,	-5900
▁acade	-5901
▁easier	-5902
▁adopt	-5903
▁explain	-5904
arrow	-5905
▁Port	-5906
remote	-5907
▁serve	-5908
▁stim	-5909
▁Sur	-5910
plates	-5911
▁board	-5912
)\	-5913
▁tissue	-5914
▁contract	-5915
▁Mich	-5916
logical	-5917
▁OS	-5918
▁David	-5919
▁Internet	-5920
GR	-5921
▁learned	-5922
dential	-5923
Over	-5924
ga	-5925
▁neuro	-5926
▁termin	-5927
ssl	-5928
▁phase	-5929
▁Service	-5930
iox	-5931
▁breast	-5932
Method	-5933
▁installed	-5934
▁thousands	-5935
tml	-5936
feed	-5937
▁emerg	-5938
USER	-5939
▁court	-5940
▁innov	-5941
▁muscle	-5942
▁warranty	-5943
__':	-5944
original	-5945
▁ignore	-5946
care	-5947
▁Phil	-5948
exceptions	-5949
('-	-5950
agent	-5951
allel	-5952
deed	-5953
▁ess	-5954
▁opportunities	-5955
▁shell	-5956
▁requests	-5957
▁AR	-5958
forms	-5959
▁Colle	-5960
▁emissions	-5961
oma	-5962
defaults	-5963
ugins	-5964
nn	-5965
onic	-5966
▁Let	-5967
▁happens	-5968
▁pow	-5969
▁Gen	-5970
▁notes	-5971
▁milk	-5972
xiety	-5973
▁combination	-5974
▁absor	-5975
▁invent	-5976
ara	-5977
","	-5978
augh	-5979
▁NotImplemented	-5980
]])	-5981
ULL	-5982
▁pool	-5983
▁manage	-5984
hi	-5985
▁neut	-5986
cd	-5987
ste	-5988
▁previously	-5989
flag	-5990
▁findings	-5991
filters	-5992
▁effic	-5993
▁MERCHANTABILITY	-5994
▁believed	-5995
▁strategies	-5996
gnu	-5997
▁Medic	-5998
stitution	-5999
They	-6000
gers	-6001
▁HTML	-6002
reshold	-6003
▁February	-6004
download	-6005
▁}}	-6006
TEXT	-6007
▁pul	-6008
atom	-6009
▁die	-6010
▁Pat	-6011
▁Egypt	-6012
asion	-6013
▁callback	-6014
month	-6015
▁Thus	-6016
▁identity	-6017
▁paths	-6018
operation	-6019
▁goals	-6020
▁observed	-6021
▁independent	-6022
▁vary	-6023
▁Jewish	-6024
SET	-6025
▁promote	-6026
▁released	-6027
▁office	-6028
▁wonder	-6029
▁Development	-6030
sig	-6031
URE	-6032
▁".	-6033
car	-6034
band	-6035
▁fert	-6036
▁optim	-6037
▁expand	-6038
hostname	-6039
eration	-6040
den	-6041
za	-6042
▁Their	-6043
▁consumption	-6044
▁regarding	-6045
Des	-6046
SION	-6047
▁whom	-6048
mult	-6049
igure	-6050
▁usage	-6051
▁adjust	-6052
▁commercial	-6053
async	-6054
Block	-6055
utable	-6056
▁carried	-6057
▁Time	-6058
▁resistance	-6059
▁technologies	-6060
▁phen	-6061
▁party	-6062
▁compat	-6063
▁degrees	-6064
collection	-6065
ball	-6066
▁vision	-6067
GE	-6068
▁planning	-6069
▁Base	-6070
▁Lord	-6071
▁coordin	-6072
MET	-6073
LICENSE	-6074
▁seven	-6075
nic	-6076
▁income	-6077
▁Dec	-6078
LL	-6079
▁changing	-6080
▁suggests	-6081
Mat	-6082
▁stem	-6083
imer	-6084
▁France	-6085
▁Ver	-6086
WARE	-6087
depth	-6088
▁policies	-6089
DR	-6090
▁enumerate	-6091
lint	-6092
▁La	-6093
▁conv	-6094
onal	-6095
adding	-6096
▁Council	-6097
Buffer	-6098
▁classroom	-6099
anned	-6100
edit	-6101
▁Hel	-6102
▁experiences	-6103
eria	-6104
▁Class	-6105
DI	-6106
Spec	-6107
▁UK	-6108
▁af	-6109
mak	-6110
some	-6111
▁transl	-6112
▁organizations	-6113
FILE	-6114
▁zone	-6115
▁labels	-6116
▁exhib	-6117
▁authent	-6118
abric	-6119
▁chose	-6120
UE	-6121
▁depending	-6122
▁estimated	-6123
▁Japanese	-6124
▁recommended	-6125
▁strategy	-6126
POST	-6127
▁drive	-6128
▁determined	-6129
▁Spe	-6130
enable	-6131
▁slight	-6132
▁dou	-6133
google	-6134
▁[[	-6135
▁wave	-6136
zero	-6137
▁park	-6138
lean	-6139
▁mathemat	-6140
▁updated	-6141
fr	-6142
▁huge	-6143
weights	-6144
▁batter	-6145
DA	-6146
ccount	-6147
▁chain	-6148
▁Cour	-6149
▁significantly	-6150
Qt	-6151
▁depart	-6152
▁utils	-6153
ws	-6154
VID	-6155
▁Out	-6156
encing	-6157
▁blocks	-6158
▁ang	-6159
=_	-6160
▁approximately	-6161
claim	-6162
ims	-6163
▁extremely	-6164
secret	-6165
▁minor	-6166
▁frequency	-6167
▁isol	-6168
▁sac	-6169
▁consequ	-6170
▁collabor	-6171
extension	-6172
ithub	-6173
scape	-6174
warnings	-6175
▁minimum	-6176
Warning	-6177
▁plastic	-6178
▁introduced	-6179
▁bodies	-6180
iant	-6181
subnet	-6182
....	-6183
▁edge	-6184
cb	-6185
▁api	-6186
']),	-6187
▁&',	-6188
sync	-6189
generate	-6190
asure	-6191
EG	-6192
▁heavy	-6193
▁breath	-6194
▁turned	-6195
cluster	-6196
▁plans	-6197
▁contents	-6198
atalog	-6199
▁eight	-6200
iment	-6201
▁presented	-6202
▁Retrieved	-6203
▁excess	-6204
ignore	-6205
▁instances	-6206
pers	-6207
▁hour	-6208
▁William	-6209
▁decades	-6210
▁category	-6211
WN	-6212
tailed	-6213
kind	-6214
▁linked	-6215
▁partners	-6216
▁Lin	-6217
▁contrast	-6218
▁relevant	-6219
ivation	-6220
▁decisions	-6221
Write	-6222
Red	-6223
▁charge	-6224
xygen	-6225
▁faith	-6226
▁Social	-6227
essel	-6228
▁((	-6229
▁male	-6230
$',	-6231
alpha	-6232
uation	-6233
▁gather	-6234
▁urban	-6235
▁emphas	-6236
pkg	-6237
roke	-6238
▁commands	-6239
assertIn	-6240
ago	-6241
▁BAS	-6242
aud	-6243
apers	-6244
▁shift	-6245
reverse	-6246
▁bone	-6247
▁square	-6248
numpy	-6249
▁participants	-6250
▁priv	-6251
▁Text	-6252
▁Human	-6253
▁authors	-6254
sym	-6255
unct	-6256
▁experiment	-6257
rv	-6258
▁Organ	-6259
▁nuclear	-6260
mk	-6261
▁Western	-6262
fess	-6263
uler	-6264
▁owners	-6265
▁depression	-6266
▁philosoph	-6267
▁fro	-6268
Unless	-6269
Graph	-6270
ted	-6271
▁closed	-6272
zeros	-6273
available	-6274
▁Pal	-6275
orph	-6276
Other	-6277
▁becoming	-6278
Sup	-6279
isf	-6280
ivalent	-6281
▁Fre	-6282
▁sql	-6283
▁Japan	-6284
DITIONS	-6285
▁::	-6286
▁esc	-6287
▁attract	-6288
▁kid	-6289
rd	-6290
Net	-6291
Here	-6292
font	-6293
▁lock	-6294
▁battle	-6295
▁reality	-6296
▁disorders	-6297
▁byte	-6298
gments	-6299
▁looks	-6300
▁download	-6301
▁permission	-6302
▁arr	-6303
▁EX	-6304
aped	-6305
▁wanted	-6306
sparse	-6307
TypeError	-6308
▁columns	-6309
scriptor	-6310
▁clinical	-6311
▁distinct	-6312
git	-6313
▁Di	-6314
▁games	-6315
▁opin	-6316
▁describe	-6317
lang	-6318
▁spring	-6319
Boolean	-6320
▁populations	-6321
▁sexual	-6322
mov	-6323
▁verbose	-6324
▁wrap	-6325
▁bed	-6326
optional	-6327
▁finding	-6328
Property	-6329
operator	-6330
LECT	-6331
soft	-6332
▁aspects	-6333
finally	-6334
cii	-6335
▁frequently	-6336
Act	-6337
▁lif	-6338
precated	-6339
▁James	-6340
ker	-6341
▁Return	-6342
▁reserved	-6343
FC	-6344
############	-6345
termin	-6346
▁invalid	-6347
isode	-6348
▁ple	-6349
acts	-6350
media	-6351
effect	-6352
IAL	-6353
▁relationships	-6354
hether	-6355
▁legis	-6356
▁transfer	-6357
Ste	-6358
▁occurred	-6359
WS	-6360
RES	-6361
▁PO	-6362
▁causing	-6363
rier	-6364
However	-6365
▁TH	-6366
▁campaign	-6367
tm	-6368
)])	-6369
hetic	-6370
▁garden	-6371
▁anyone	-6372
▁conducted	-6373
▁Congress	-6374
▁views	-6375
▁fle	-6376
▁soci	-6377
▁metal	-6378
OFT	-6379
ulum	-6380
▁famous	-6381
Token	-6382
That	-6383
escape	-6384
ows	-6385
dirs	-6386
▁freedom	-6387
SQL	-6388
itionally	-6389
▁clearly	-6390
gate	-6391
▁desp	-6392
▁",	-6393
Types	-6394
ouses	-6395
unately	-6396
++	-6397
tainer	-6398
▁"'	-6399
stone	-6400
▁medicine	-6401
Socket	-6402
▁killed	-6403
▁vitamin	-6404
▁Post	-6405
summary	-6406
enth	-6407
▁homes	-6408
orded	-6409
▁loop	-6410
▁adding	-6411
▁completed	-6412
▁Only	-6413
▁liqu	-6414
▁define	-6415
▁selection	-6416
▁intellig	-6417
▁Air	-6418
▁industrial	-6419
events	-6420
▁fixed	-6421
▁trigger	-6422
▁rev	-6423
loaded	-6424
chunk	-6425
▁patch	-6426
Multi	-6427
DATA	-6428
Me	-6429
▁CONDITIONS	-6430
▁sand	-6431
▁covered	-6432
▁documents	-6433
cpu	-6434
▁Mary	-6435
pet	-6436
▁Qt	-6437
▁Model	-6438
▁nove	-6439
ael	-6440
▁BASIS	-6441
▁represents	-6442
complete	-6443
private	-6444
▁credit	-6445
aran	-6446
▁indicate	-6447
reset	-6448
Mode	-6449
▁president	-6450
▁supports	-6451
PAR	-6452
▁widely	-6453
ognitive	-6454
▁var	-6455
▁fix	-6456
Met	-6457
achine	-6458
OUT	-6459
mis	-6460
▁domin	-6461
Label	-6462
▁Republic	-6463
sim	-6464
▁jobs	-6465
▁pieces	-6466
▁explicit	-6467
sep	-6468
hyd	-6469
ueue	-6470
▁Green	-6471
▁Windows	-6472
▁languages	-6473
Min	-6474
almost	-6475
▁univers	-6476
▁Attribute	-6477
learn	-6478
▁partner	-6479
support	-6480
Checker	-6481
pdf	-6482
▁assessment	-6483
override	-6484
▁hear	-6485
▁Children	-6486
pick	-6487
▁Spanish	-6488
ja	-6489
▁Government	-6490
hesis	-6491
ulf	-6492
▁Ma	-6493
basic	-6494
▁Dem	-6495
▁salt	-6496
▁batch	-6497
sd	-6498
▁vul	-6499
possible	-6500
yles	-6501
MAX	-6502
iddleware	-6503
ircle	-6504
▁Plan	-6505
Use	-6506
ially	-6507
▁mapping	-6508
▁tour	-6509
images	-6510
▁inner	-6511
▁NO	-6512
▁Any	-6513
▁district	-6514
▁Food	-6515
stock	-6516
simple	-6517
integer	-6518
owner	-6519
▁pylint	-6520
▁intended	-6521
▁buildings	-6522
CA	-6523
▁meant	-6524
▁hair	-6525
▁solutions	-6526
▁served	-6527
fall	-6528
AGS	-6529
▁reached	-6530
require	-6531
▁referred	-6532
▁attrs	-6533
▁lived	-6534
▁couple	-6535
▁technique	-6536
▁numerous	-6537
Rep	-6538
▁kill	-6539
alysis	-6540
ancing	-6541
Mixin	-6542
▁risks	-6543
▁prepar	-6544
sleep	-6545
ander	-6546
▁respond	-6547
Window	-6548
ctype	-6549
▁handler	-6550
azy	-6551
▁File	-6552
▁College	-6553
going	-6554
▁kept	-6555
▁Mal	-6556
olved	-6557
▁'')	-6558
▁circum	-6559
urls	-6560
▁ocean	-6561
▁noted	-6562
▁tags	-6563
▁Greek	-6564
▁fine	-6565
▁Bra	-6566
NOT	-6567
holder	-6568
click	-6569
-------	-6570
▁electricity	-6571
▁organic	-6572
ASA	-6573
▁switch	-6574
▁stock	-6575
returned	-6576
▁tab	-6577
IA	-6578
▁mostly	-6579
▁targets	-6580
nel	-6581
▁soft	-6582
built	-6583
clusion	-6584
▁race	-6585
Max	-6586
nergy	-6587
▁derived	-6588
▁virtual	-6589
Art	-6590
▁Museum	-6591
eries	-6592
▁violence	-6593
▁Met	-6594
▁scen	-6595
well	-6596
▁environ	-6597
▁George	-6598
▁speech	-6599
▁chronic	-6600
▁Config	-6601
period	-6602
▁req	-6603
▁dangerous	-6604
STAT	-6605
▁literature	-6606
hat	-6607
▁disk	-6608
Now	-6609
▁corresponding	-6610
▁Aut	-6611
▁branch	-6612
▁decor	-6613
▁infra	-6614
Init	-6615
sock	-6616
iced	-6617
backend	-6618
()))	-6619
resources	-6620
Su	-6621
▁Once	-6622
▁buy	-6623
Tree	-6624
▁_('	-6625
▁oxygen	-6626
▁god	-6627
outputs	-6628
▁feeling	-6629
mas	-6630
signal	-6631
▁LI	-6632
SL	-6633
▁collections	-6634
▁purposes	-6635
roph	-6636
before	-6637
▁temperatures	-6638
VE	-6639
▁Under	-6640
▁charg	-6641
ida	-6642
▁scope	-6643
')),	-6644
▁export	-6645
▁Therefore	-6646
▁Mac	-6647
▁mentioned	-6648
blem	-6649
icians	-6650
▁magn	-6651
:\	-6652
▁advanced	-6653
▁solid	-6654
suffix	-6655
ria	-6656
▁encode	-6657
▁meeting	-6658
igrations	-6659
ano	-6660
▁gender	-6661
▁pair	-6662
▁"",	-6663
▁visible	-6664
apped	-6665
▁touch	-6666
iki	-6667
orest	-6668
particle	-6669
{%	-6670
testing	-6671
Num	-6672
▁restore	-6673
iveness	-6674
▁anxiety	-6675
▁Direct	-6676
iverse	-6677
proc	-6678
According	-6679
▁characteristics	-6680
ups	-6681
counter	-6682
▁blank	-6683
▁operator	-6684
▁elimin	-6685
▁prepared	-6686
duce	-6687
dumps	-6688
▁aren	-6689
contents	-6690
▁eggs	-6691
ocab	-6692
▁ipv	-6693
ACE	-6694
Logger	-6695
neg	-6696
▁reducing	-6697
▁Control	-6698
ris	-6699
Order	-6700
▁pal	-6701
pytest	-6702
"].	-6703
Rel	-6704
ician	-6705
▁sin	-6706
▁radio	-6707
gent	-6708
▁beautiful	-6709
▁Lo	-6710
▁facts	-6711
note	-6712
Americ	-6713
▁combined	-6714
▁involves	-6715
▁Emp	-6716
Button	-6717
▁comprehen	-6718
AutoField	-6719
assign	-6720
OFTWARE	-6721
▁serial	-6722
▁persons	-6723
▁KeyError	-6724
'^	-6725
verify	-6726
▁exposed	-6727
LS	-6728
riage	-6729
▁alter	-6730
▁leads	-6731
Port	-6732
umin	-6733
rich	-6734
Ass	-6735
▁Del	-6736
zon	-6737
rains	-6738
▁Fort	-6739
▁tooth	-6740
▁bug	-6741
regex	-6742
oses	-6743
Entry	-6744
▁ops	-6745
metric	-6746
screen	-6747
▁proposed	-6748
Parse	-6749
sched	-6750
▁interested	-6751
▁warning	-6752
UTH	-6753
▁articles	-6754
yes	-6755
▁unless	-6756
▁Rich	-6757
▁Off	-6758
▁genes	-6759
▁stra	-6760
▁principles	-6761
pip	-6762
Us	-6763
▁annual	-6764
yg	-6765
aws	-6766
▁island	-6767
keep	-6768
▁Mag	-6769
▁territ	-6770
ooth	-6771
netic	-6772
extract	-6773
rev	-6774
▁prec	-6775
▁helped	-6776
▁Why	-6777
tw	-6778
▁onto	-6779
ologist	-6780
▁citizens	-6781
urs	-6782
Link	-6783
▁depends	-6784
▁surgery	-6785
▁candid	-6786
upt	-6787
▁electron	-6788
istent	-6789
expect	-6790
components	-6791
▁implemented	-6792
rence	-6793
▁faster	-6794
▁AS	-6795
urance	-6796
payload	-6797
▁obvious	-6798
ka	-6799
YR	-6800
▁film	-6801
Task	-6802
Sign	-6803
▁hun	-6804
▁advantage	-6805
▁entity	-6806
▁college	-6807
Sy	-6808
Filter	-6809
Vector	-6810
pher	-6811
▁Tur	-6812
▁marker	-6813
▁youth	-6814
▁latest	-6815
Session	-6816
SIZE	-6817
structions	-6818
ection	-6819
standing	-6820
▁radiation	-6821
▁trib	-6822
▁injury	-6823
▁vessel	-6824
atest	-6825
▁Budd	-6826
▁Island	-6827
liter	-6828
endswith	-6829
racy	-6830
▁Tex	-6831
▁tum	-6832
▁Jer	-6833
cerns	-6834
▁effectively	-6835
▁html	-6836
Go	-6837
▁automatically	-6838
(%	-6839
▁urllib	-6840
▁involve	-6841
▁arm	-6842
▁bind	-6843
▁mist	-6844
tokens	-6845
amma	-6846
berg	-6847
Select	-6848
=',	-6849
compl	-6850
anging	-6851
▁Stand	-6852
fast	-6853
losed	-6854
▁prev	-6855
EV	-6856
Dat	-6857
rules	-6858
▁Phys	-6859
▁meat	-6860
Work	-6861
menu	-6862
▁framework	-6863
ORS	-6864
▁Cath	-6865
▁Management	-6866
▁religion	-6867
▁connections	-6868
done	-6869
▁rank	-6870
▁divers	-6871
byte	-6872
Te	-6873
▁northern	-6874
route	-6875
▁Its	-6876
raries	-6877
library	-6878
ya	-6879
▁trend	-6880
ads	-6881
verty	-6882
interval	-6883
▁thick	-6884
▁explore	-6885
▁incorpor	-6886
▁[(	-6887
ubs	-6888
▁Ben	-6889
cipl	-6890
▁iron	-6891
First	-6892
▁grade	-6893
▁experienced	-6894
states	-6895
▁forced	-6896
More	-6897
▁allowing	-6898
nb	-6899
serialize	-6900
▁collected	-6901
▁finally	-6902
Gui	-6903
reds	-6904
▁follows	-6905
▁Mem	-6906
▁comfort	-6907
▁song	-6908
▁colors	-6909
fc	-6910
uing	-6911
▁reaction	-6912
▁>>	-6913
▁spent	-6914
▁decided	-6915
▁signature	-6916
)],	-6917
▁creates	-6918
upper	-6919
▁procedure	-6920
"'	-6921
▁Loc	-6922
▁offic	-6923
missing	-6924
▁conservation	-6925
Em	-6926
ollow	-6927
best	-6928
▁seeds	-6929
▁flex	-6930
riculum	-6931
▁amounts	-6932
▁escape	-6933
▁excell	-6934
▁push	-6935
▁heard	-6936
▁Kore	-6937
▁lists	-6938
▁detail	-6939
▁chunk	-6940
▁Paul	-6941
▁observ	-6942
▁comments	-6943
png	-6944
▁extent	-6945
hex	-6946
ributed	-6947
▁recorded	-6948
eties	-6949
mapping	-6950
card	-6951
reference	-6952
]],	-6953
▁Spec	-6954
iffer	-6955
opes	-6956
▁saying	-6957
udget	-6958
rian	-6959
▁Ter	-6960
▁inh	-6961
▁dogs	-6962
▁yellow	-6963
big	-6964
Failed	-6965
MENT	-6966
▁Build	-6967
▁plugin	-6968
ini	-6969
cosystem	-6970
itors	-6971
Interface	-6972
amount	-6973
▁motion	-6974
ologists	-6975
▁aid	-6976
izers	-6977
PUT	-6978
Why	-6979
▁Mount	-6980
▁fort	-6981
▁Hen	-6982
arter	-6983
▁ball	-6984
▁profile	-6985
▁mix	-6986
▁prepare	-6987
atever	-6988
dst	-6989
▁versions	-6990
▁jour	-6991
▁experts	-6992
▁perman	-6993
▁Mor	-6994
▁tested	-6995
▁reduction	-6996
sha	-6997
▁instrument	-6998
▁Option	-6999
▁Log	-7000
▁uint	-7001
region	-7002
▁smart	-7003
▁SOFTWARE	-7004
▁conver	-7005
dentials	-7006
▁validate	-7007
▁packet	-7008
DEL	-7009
▁begins	-7010
▁representation	-7011
Project	-7012
fmt	-7013
ffff	-7014
here	-7015
▁station	-7016
▁):	-7017
anged	-7018
▁starts	-7019
▁infections	-7020
▁Latin	-7021
Parameter	-7022
gest	-7023
redirect	-7024
▁widget	-7025
▁pollution	-7026
ned	-7027
▁nur	-7028
▁motor	-7029
cript	-7030
▁Library	-7031
entries	-7032
▁compare	-7033
Protocol	-7034
▁sufficient	-7035
DateTimeField	-7036
▁mainly	-7037
▁Ber	-7038
▁strip	-7039
▁"<	-7040
,)	-7041
▁meta	-7042
▁cry	-7043
▁glass	-7044
ipe	-7045
▁helping	-7046
csv	-7047
false	-7048
▁opened	-7049
▁substant	-7050
ITE	-7051
▁ol	-7052
amental	-7053
▁pretty	-7054
▁catch	-7055
▁Students	-7056
▁Asia	-7057
cluding	-7058
cers	-7059
database	-7060
▁Robert	-7061
▁provider	-7062
Auth	-7063
writer	-7064
▁profession	-7065
Most	-7066
▁accepted	-7067
router	-7068
inition	-7069
▁continues	-7070
▁successfully	-7071
▁concerns	-7072
Thread	-7073
perm	-7074
▁southern	-7075
▁coal	-7076
▁IM	-7077
▁modules	-7078
System	-7079
aph	-7080
tar	-7081
▁Cam	-7082
▁…	-7083
seed	-7084
Attributes	-7085
bert	-7086
▁modified	-7087
▁Thomas	-7088
▁score	-7089
▁vulner	-7090
▁fluid	-7091
Access	-7092
▁grass	-7093
Although	-7094
▁concepts	-7095
oking	-7096
▁Old	-7097
single	-7098
▁academic	-7099
-----	-7100
▁manner	-7101
▁emotional	-7102
aughter	-7103
▁vegetables	-7104
▁underst	-7105
▁detailed	-7106
signed	-7107
▁cloud	-7108
GB	-7109
▁reader	-7110
▁username	-7111
tenance	-7112
Comp	-7113
)",	-7114
flat	-7115
▁illness	-7116
BUG	-7117
▁refers	-7118
configuration	-7119
expand	-7120
acific	-7121
▁Every	-7122
▁institutions	-7123
▁trou	-7124
van	-7125
▁override	-7126
▁scan	-7127
.%	-7128
bucket	-7129
Ke	-7130
▁remaining	-7131
Our	-7132
raints	-7133
▁digest	-7134
▁situations	-7135
ij	-7136
▁suc	-7137
posite	-7138
▁consult	-7139
▁tro	-7140
pg	-7141
ishes	-7142
RI	-7143
▁cos	-7144
▁schedule	-7145
ampl	-7146
▁authority	-7147
Update	-7148
zy	-7149
_)	-7150
unte	-7151
celer	-7152
tdc	-7153
PY	-7154
tol	-7155
▁(%	-7156
▁san	-7157
drop	-7158
wood	-7159
COL	-7160
SV	-7161
▁explan	-7162
oving	-7163
▁specify	-7164
▁inputs	-7165
▁Court	-7166
tic	-7167
hosts	-7168
▁Space	-7169
▁hospital	-7170
▁cluster	-7171
Make	-7172
estim	-7173
price	-7174
▁vector	-7175
agers	-7176
times	-7177
▁farmers	-7178
achment	-7179
▁atom	-7180
Enc	-7181
phin	-7182
▁existence	-7183
▁tear	-7184
▁Code	-7185
ATTR	-7186
▁somew	-7187
▁reprodu	-7188
[^	-7189
specific	-7190
dump	-7191
▁subprocess	-7192
▁horm	-7193
▁improved	-7194
MB	-7195
▁Jews	-7196
▁atmosphere	-7197
▁subsequ	-7198
assertAll	-7199
▁plot	-7200
▁wealth	-7201
▁Network	-7202
▁compute	-7203
named	-7204
▁protected	-7205
Ftdc	-7206
▁Licensed	-7207
▁sustainable	-7208
▁HIV	-7209
ulating	-7210
▁Using	-7211
▁border	-7212
actual	-7213
pm	-7214
▁diagnosis	-7215
▁phenomen	-7216
▁prompt	-7217
▁correctly	-7218
▁equivalent	-7219
center	-7220
▁letters	-7221
Python	-7222
▁kinds	-7223
▁encourage	-7224
▁listed	-7225
final	-7226
▁ded	-7227
Co	-7228
▁Mart	-7229
arded	-7230
got	-7231
▁voice	-7232
▁discuss	-7233
▁Form	-7234
▁enem	-7235
▁desired	-7236
ancel	-7237
▁awareness	-7238
VERSION	-7239
aven	-7240
▁essay	-7241
)).	-7242
▁eco	-7243
▁tow	-7244
rase	-7245
▁Mexico	-7246
▁White	-7247
▁presc	-7248
bits	-7249
▁dra	-7250
▁straight	-7251
ndrome	-7252
lt	-7253
Pass	-7254
▁calling	-7255
}}	-7256
inity	-7257
rpc	-7258
▁advance	-7259
▁Civil	-7260
illa	-7261
▁none	-7262
▁secure	-7263
▁AttributeError	-7264
ua	-7265
▁trial	-7266
▁Second	-7267
when	-7268
adian	-7269
phone	-7270
parameter	-7271
('--	-7272
▁Doc	-7273
bridge	-7274
()),	-7275
sembly	-7276
gi	-7277
ND	-7278
▁lesson	-7279
▁Sum	-7280
▁nav	-7281
▁ON	-7282
▁COP	-7283
Current	-7284
▁specifically	-7285
{"	-7286
Close	-7287
▁Field	-7288
▁electrical	-7289
▁Micro	-7290
▁vital	-7291
▁Id	-7292
▁contribute	-7293
kernel	-7294
lots	-7295
supported	-7296
▁chemicals	-7297
correct	-7298
▁button	-7299
ato	-7300
▁operating	-7301
pub	-7302
sqrt	-7303
aturally	-7304
▁waters	-7305
existing	-7306
dataset	-7307
▁leader	-7308
▁Bay	-7309
ounced	-7310
▁neighbor	-7311
MD	-7312
heast	-7313
▁Cons	-7314
("/	-7315
apply	-7316
accept	-7317
▁periods	-7318
choice	-7319
▁Sal	-7320
▁showing	-7321
▁discovery	-7322
should	-7323
▁Pen	-7324
▁hit	-7325
branch	-7326
ointer	-7327
▁defic	-7328
atial	-7329
▁engineering	-7330
ummy	-7331
``.	-7332
iso	-7333
▁recognized	-7334
days	-7335
▁particles	-7336
▁"__	-7337
symbol	-7338
▁renew	-7339
rtype	-7340
▁ideal	-7341
▁playing	-7342
▁technical	-7343
ONE	-7344
▁indicates	-7345
▁manager	-7346
▁morning	-7347
Copyright	-7348
staticmethod	-7349
▁Arab	-7350
arguments	-7351
commun	-7352
▁instruction	-7353
▁taught	-7354
▁Central	-7355
▁hearing	-7356
▁remained	-7357
▁potentially	-7358
▁formation	-7359
▁primarily	-7360
▁Life	-7361
▁slightly	-7362
▁efficiency	-7363
▁offered	-7364
▁practical	-7365
▁focused	-7366
▁Order	-7367
▁toxic	-7368
▁Isl	-7369
▁brief	-7370
▁Mer	-7371
▁grid	-7372
▁Default	-7373
▁keeping	-7374
Hash	-7375
▁fabric	-7376
kg	-7377
pository	-7378
▁keyword	-7379
imize	-7380
SELECT	-7381
▁delay	-7382
▁Tw	-7383
.',	-7384
edge	-7385
Length	-7386
layout	-7387
uate	-7388
▁nest	-7389
rieve	-7390
▁repeated	-7391
▁extended	-7392
]):	-7393
CLUD	-7394
▁Su	-7395
▁shr	-7396
memory	-7397
("\	-7398
history	-7399
PRE	-7400
rl	-7401
▁cris	-7402
▁driver	-7403
internal	-7404
cest	-7405
▁virt	-7406
cost	-7407
plan	-7408
failed	-7409
▁Admin	-7410
▁happened	-7411
▁professor	-7412
▁tail	-7413
▁spend	-7414
▁generator	-7415
▁toler	-7416
links	-7417
▁consequences	-7418
▁Virgin	-7419
▁consists	-7420
▁Affer	-7421
inet	-7422
▁thoughts	-7423
▁Texas	-7424
▁liquid	-7425
▁sing	-7426
updated	-7427
▁Medicine	-7428
ny	-7429
RECT	-7430
▁Affero	-7431
▁?	-7432
▁looked	-7433
oles	-7434
▁Mock	-7435
▁roots	-7436
rout	-7437
▁affects	-7438
/'	-7439
issues	-7440
Queue	-7441
ipp	-7442
Ket	-7443
▁girls	-7444
▁MA	-7445
▁earn	-7446
'<	-7447
Pe	-7448
wall	-7449
▁Information	-7450
▁certainly	-7451
▁responsibility	-7452
▁enabled	-7453
gregate	-7454
▁despite	-7455
▁runs	-7456
▁Army	-7457
USE	-7458
lat	-7459
▁wet	-7460
pite	-7461
uzz	-7462
Cache	-7463
▁normally	-7464
▁replaced	-7465
selected	-7466
suite	-7467
▁Unless	-7468
IMIT	-7469
logy	-7470
▁matches	-7471
▁algorithm	-7472
▁continuous	-7473
▁Britain	-7474
▁NASA	-7475
▁Energy	-7476
HTML	-7477
▁Sen	-7478
▁pup	-7479
▁topics	-7480
▁extreme	-7481
glob	-7482
▁[('	-7483
▁foss	-7484
ailability	-7485
Level	-7486
Prov	-7487
endar	-7488
▁snow	-7489
▁monitoring	-7490
▁attacks	-7491
▁possibly	-7492
vertical	-7493
▁EV	-7494
▁ecosystem	-7495
▁%}	-7496
▁sector	-7497
▁matching	-7498
seconds	-7499
▁suggested	-7500
ums	-7501
Writ	-7502
▁Two	-7503
appro	-7504
▁band	-7505
▁Medical	-7506
▁centuries	-7507
▁muscles	-7508
▁helpful	-7509
Mac	-7510
▁route	-7511
__.	-7512
▁nit	-7513
▁portion	-7514
Flow	-7515
ascii	-7516
▁treatments	-7517
▁perspective	-7518
▁army	-7519
▁drinking	-7520
oughly	-7521
details	-7522
▁Author	-7523
Op	-7524
Network	-7525
preci	-7526
▁subjects	-7527
▁appoint	-7528
FR	-7529
▁fake	-7530
changes	-7531
▁Index	-7532
▁stars	-7533
targets	-7534
▁rows	-7535
▁wire	-7536
▁Guide	-7537
arp	-7538
bra	-7539
▁reject	-7540
INGS	-7541
▁typical	-7542
ometimes	-7543
Color	-7544
▁Engine	-7545
▁encourag	-7546
▁km	-7547
▁largely	-7548
ARY	-7549
▁SH	-7550
▁bird	-7551
members	-7552
▁responses	-7553
Post	-7554
▁Both	-7555
▁controlled	-7556
agraph	-7557
snapshot	-7558
cus	-7559
▁tried	-7560
▁apparent	-7561
elist	-7562
plements	-7563
▁align	-7564
▁XML	-7565
▁Dict	-7566
▁locations	-7567
▁"-	-7568
environment	-7569
sources	-7570
▁networks	-7571
▁convers	-7572
▁News	-7573
Layer	-7574
▁brow	-7575
,))	-7576
▁abuse	-7577
scal	-7578
▁obtained	-7579
Container	-7580
'",	-7581
enu	-7582
▁concentr	-7583
▁dimension	-7584
▁vehicle	-7585
▁measured	-7586
▁nutrients	-7587
▁strict	-7588
▁stdout	-7589
UUUU	-7590
▁pull	-7591
▁Mr	-7592
Last	-7593
▁>',	-7594
▁phone	-7595
▁'#	-7596
gis	-7597
▁advice	-7598
▁proport	-7599
▁Bible	-7600
▁pros	-7601
▁'$	-7602
▁explains	-7603
▁felt	-7604
▁astr	-7605
▁accounts	-7606
▁underlying	-7607
▁Ze	-7608
▁accurate	-7609
▁haz	-7610
▁Lou	-7611
▁suitable	-7612
osity	-7613
▁Sou	-7614
▁pil	-7615
▁exceptions	-7616
game	-7617
ipv	-7618
ells	-7619
once	-7620
lass	-7621
▁yield	-7622
▁satisf	-7623
▁cognitive	-7624
▁fundamental	-7625
▁wife	-7626
oston	-7627
▁divided	-7628
cli	-7629
browse	-7630
▁vaccine	-7631
She	-7632
docs	-7633
plain	-7634
▁surrounding	-7635
▁spaces	-7636
▁Language	-7637
CLUDING	-7638
▁police	-7639
▁lose	-7640
▁representing	-7641
▁excellent	-7642
▁claims	-7643
ceeded	-7644
proces	-7645
Edit	-7646
annot	-7647
pression	-7648
ky	-7649
Mod	-7650
slice	-7651
▁Treat	-7652
▁career	-7653
▁FROM	-7654
▁roll	-7655
▁mort	-7656
udden	-7657
▁Further	-7658
CD	-7659
lap	-7660
ptr	-7661
▁Learning	-7662
otion	-7663
Template	-7664
▁Russian	-7665
fortunately	-7666
fname	-7667
▁Commission	-7668
▁USA	-7669
LA	-7670
▁synt	-7671
two	-7672
aria	-7673
▁marked	-7674
imination	-7675
▁novel	-7676
iate	-7677
▁Company	-7678
HOST	-7679
▁doll	-7680
Find	-7681
Stud	-7682
▁Atl	-7683
▁agricultural	-7684
Another	-7685
pp	-7686
enerp	-7687
▁grand	-7688
▁attached	-7689
▁greatest	-7690
▁cm	-7691
Sp	-7692
Author	-7693
▁poverty	-7694
▁intr	-7695
▁maps	-7696
▁recy	-7697
▁Find	-7698
▁firm	-7699
▁bill	-7700
▁saved	-7701
▁Bel	-7702
units	-7703
(('	-7704
▁medium	-7705
▁Technology	-7706
Control	-7707
layers	-7708
▁harvest	-7709
▁flowers	-7710
fg	-7711
▁wx	-7712
▁inject	-7713
▁ox	-7714
▁vast	-7715
▁hyper	-7716
▁habitat	-7717
ANS	-7718
Names	-7719
packages	-7720
▁twice	-7721
▁layers	-7722
Format	-7723
▁Acade	-7724
▁increasingly	-7725
▁JSON	-7726
▁biological	-7727
Exec	-7728
such	-7729
▁pure	-7730
▁explained	-7731
▁vs	-7732
▁Tra	-7733
▁relation	-7734
▁broken	-7735
▁Profess	-7736
▁sounds	-7737
ashes	-7738
aker	-7739
▁Mass	-7740
▁Dise	-7741
▁Prov	-7742
▁emergency	-7743
▁interests	-7744
▁Que	-7745
▁stone	-7746
▁rob	-7747
▁impacts	-7748
.\	-7749
▁Ir	-7750
▁prison	-7751
▁schema	-7752
framework	-7753
▁hel	-7754
hr	-7755
flush	-7756
▁represented	-7757
partition	-7758
intern	-7759
▁Request	-7760
▁blog	-7761
▁agent	-7762
Resource	-7763
▁Muslim	-7764
▁Ang	-7765
▁played	-7766
MIN	-7767
Random	-7768
Wrapper	-7769
▁bright	-7770
ye	-7771
▁indent	-7772
Mon	-7773
▁governments	-7774
Dr	-7775
/',	-7776
▁shut	-7777
iday	-7778
▁familiar	-7779
▁Report	-7780
▁bra	-7781
▁launch	-7782
▁constructor	-7783
Options	-7784
▁fif	-7785
ansible	-7786
identity	-7787
[:-	-7788
▁elev	-7789
ading	-7790
boolean	-7791
identifier	-7792
▁Instead	-7793
Ed	-7794
▁Point	-7795
▁spot	-7796
▁oral	-7797
________	-7798
igenous	-7799
vector	-7800
▁CONTR	-7801
▁warnings	-7802
▁revolution	-7803
▁rural	-7804
▁Table	-7805
▁nations	-7806
OO	-7807
>',	-7808
ining	-7809
▁crop	-7810
▁comparison	-7811
NotFound	-7812
irs	-7813
Host	-7814
tage	-7815
ificial	-7816
▁hundred	-7817
EP	-7818
pn	-7819
▁Init	-7820
Serial	-7821
NV	-7822
▁courses	-7823
▁moist	-7824
forward	-7825
aser	-7826
Search	-7827
▁assist	-7828
prise	-7829
▁illustr	-7830
/>.	-7831
Script	-7832
▁noise	-7833
Cre	-7834
atters	-7835
lope	-7836
helper	-7837
github	-7838
elf	-7839
▁approaches	-7840
dem	-7841
emon	-7842
generator	-7843
returns	-7844
▁metab	-7845
▁Http	-7846
▁Cy	-7847
abspath	-7848
▁Another	-7849
▁distingu	-7850
▁domestic	-7851
▁Course	-7852
ications	-7853
BooleanField	-7854
irror	-7855
consum	-7856
setattr	-7857
high	-7858
▁paid	-7859
▁appeared	-7860
▁spiritual	-7861
Only	-7862
▁Sam	-7863
▁closely	-7864
SR	-7865
▁Miss	-7866
upload	-7867
▁verify	-7868
▁dt	-7869
▁signals	-7870
undle	-7871
▁filters	-7872
▁weights	-7873
BN	-7874
Iterator	-7875
Cal	-7876
uke	-7877
▁Number	-7878
▁entries	-7879
how	-7880
▁Today	-7881
series	-7882
▁limits	-7883
Range	-7884
▁clim	-7885
▁owner	-7886
▁hundreds	-7887
ora	-7888
lements	-7889
dr	-7890
shift	-7891
▁leaving	-7892
boot	-7893
▁sick	-7894
Bl	-7895
▁tradition	-7896
▁facilities	-7897
Direct	-7898
Target	-7899
▁vent	-7900
quit	-7901
condition	-7902
▁diam	-7903
▁consistent	-7904
gra	-7905
ammation	-7906
irmed	-7907
▁Person	-7908
signature	-7909
ague	-7910
▁Power	-7911
▁convent	-7912
ellect	-7913
▁floor	-7914
quis	-7915
analy	-7916
▁discr	-7917
▁SQL	-7918
quate	-7919
▁Smith	-7920
health	-7921
->	-7922
hidden	-7923
ideos	-7924
ousing	-7925
?”	-7926
▁director	-7927
▁outer	-7928
_%	-7929
▁assume	-7930
▁filled	-7931
▁writer	-7932
▁Mod	-7933
▁Jose	-7934
▁studied	-7935
▁liver	-7936
"%	-7937
appe	-7938
student	-7939
▁Common	-7940
▁bow	-7941
▁managed	-7942
ority	-7943
▁exchange	-7944
▁officials	-7945
▁chart	-7946
:`.	-7947
uted	-7948
▁employees	-7949
Eng	-7950
▁leaf	-7951
▁goods	-7952
kin	-7953
together	-7954
YPE	-7955
plugins	-7956
▁ignored	-7957
▁pray	-7958
▁concerned	-7959
▁prices	-7960
("""	-7961
▁Rad	-7962
clusive	-7963
illed	-7964
Trace	-7965
▁expensive	-7966
itan	-7967
ements	-7968
currency	-7969
▁secondary	-7970
▁pairs	-7971
▁bio	-7972
world	-7973
plicated	-7974
Application	-7975
▁crops	-7976
▁tun	-7977
▁behaviour	-7978
phinx	-7979
▁sides	-7980
▁ends	-7981
▁prefer	-7982
▁Less	-7983
▁Command	-7984
▁naturally	-7985
▁dram	-7986
▁crucial	-7987
Print	-7988
▁feelings	-7989
▁Color	-7990
▁internet	-7991
scribe	-7992
▁redirect	-7993
▁Year	-7994
▁knew	-7995
During	-7996
reason	-7997
pad	-7998
▁org	-7999
▁peak	-8000
▁-=	-8001
▁Lake	-8002
▁ages	-8003
omin	-8004
phere	-8005
cience	-8006
prising	-8007
)(	-8008
▁Flor	-8009
slug	-8010
enames	-8011
▁stated	-8012
basename	-8013
▁suffering	-8014
▁walls	-8015
Bar	-8016
complex	-8017
▁stret	-8018
ANG	-8019
runner	-8020
▁density	-8021
▁traffic	-8022
through	-8023
▁Vis	-8024
▁wit	-8025
▁moral	-8026
▁concentration	-8027
▁Error	-8028
▁photograph	-8029
otal	-8030
extensions	-8031
▁ratio	-8032
▁relax	-8033
Plugin	-8034
▁solve	-8035
invoice	-8036
▁rapidly	-8037
elements	-8038
▁player	-8039
▁Please	-8040
▁Catholic	-8041
▁worse	-8042
▁crisis	-8043
▁originally	-8044
cium	-8045
▁shel	-8046
prev	-8047
erm	-8048
▁investment	-8049
.|	-8050
▁mit	-8051
▁Charles	-8052
▁Sovi	-8053
▁acts	-8054
hist	-8055
subprocess	-8056
hav	-8057
▁valu	-8058
▁deploy	-8059
Layout	-8060
prob	-8061
▁immun	-8062
▁recognize	-8063
qs	-8064
▁nan	-8065
▁OTH	-8066
▁evaluate	-8067
istan	-8068
▁nd	-8069
inesses	-8070
▁highlight	-8071
▁sensitive	-8072
chron	-8073
▁contained	-8074
▁boost	-8075
Web	-8076
Admin	-8077
rappe	-8078
bors	-8079
itage	-8080
▁tips	-8081
▁Carol	-8082
prom	-8083
Off	-8084
Mem	-8085
Step	-8086
modified	-8087
▁),	-8088
CF	-8089
izont	-8090
▁stick	-8091
▁opening	-8092
▁RE	-8093
▁fruits	-8094
plant	-8095
▁proteins	-8096
▁marg	-8097
▁rein	-8098
▁hydro	-8099
▁western	-8100
builder	-8101
external	-8102
▁Tor	-8103
=["	-8104
inher	-8105
▁Russia	-8106
▁Pacific	-8107
Sec	-8108
WORD	-8109
Please	-8110
▁answers	-8111
▁assigned	-8112
green	-8113
urllib	-8114
ocracy	-8115
cols	-8116
▁recovery	-8117
quence	-8118
▁substance	-8119
ston	-8120
▁accompl	-8121
rank	-8122
ocratic	-8123
▁Main	-8124
▁outcomes	-8125
▁procedures	-8126
▁Elect	-8127
chem	-8128
pair	-8129
flo	-8130
amil	-8131
Cons	-8132
collect	-8133
▁residents	-8134
▁Middle	-8135
▁movements	-8136
dn	-8137
detail	-8138
answer	-8139
cached	-8140
▁medications	-8141
▁Women	-8142
App	-8143
▁ordered	-8144
▁dut	-8145
▁discussed	-8146
>"	-8147
assertNot	-8148
▁opts	-8149
bul	-8150
▁allerg	-8151
ibilities	-8152
▁execute	-8153
▁Sol	-8154
Stack	-8155
▁narrow	-8156
player	-8157
▁describes	-8158
▁curriculum	-8159
mount	-8160
▁apart	-8161
▁grown	-8162
▁chosen	-8163
▁End	-8164
▁stuff	-8165
lections	-8166
constants	-8167
▁"_	-8168
blocks	-8169
▁manifest	-8170
▁Sea	-8171
alian	-8172
duration	-8173
uples	-8174
▁weap	-8175
▁Econom	-8176
deg	-8177
yal	-8178
▁queue	-8179
▁dataset	-8180
▁produces	-8181
dl	-8182
Next	-8183
▁USE	-8184
ascular	-8185
expression	-8186
eper	-8187
▁diversity	-8188
hour	-8189
▁Start	-8190
▁latter	-8191
▁Such	-8192
sorted	-8193
IVE	-8194
conv	-8195
icket	-8196
▁summary	-8197
▁arms	-8198
▁wants	-8199
reshape	-8200
▁ce	-8201
sem	-8202
▁chapter	-8203
▁defaults	-8204
▁Bro	-8205
selection	-8206
▁Labor	-8207
▁Frank	-8208
▁justice	-8209
ISE	-8210
INFO	-8211
riend	-8212
being	-8213
▁impossible	-8214
▁ju	-8215
▁decrease	-8216
Ac	-8217
usal	-8218
▁Histor	-8219
cop	-8220
Example	-8221
▁dimensions	-8222
▁lun	-8223
switch	-8224
▁bin	-8225
OB	-8226
tenant	-8227
=-	-8228
Examples	-8229
▁capable	-8230
▁Like	-8231
progress	-8232
▁conscious	-8233
▁Henry	-8234
▁mechanism	-8235
▁pictures	-8236
▁recon	-8237
component	-8238
ssh	-8239
sid	-8240
activ	-8241
fire	-8242
▁symbols	-8243
.;	-8244
WE	-8245
▁entirely	-8246
controller	-8247
erals	-8248
▁accum	-8249
▁preci	-8250
sn	-8251
▁hypot	-8252
▁xrange	-8253
▁parties	-8254
▁talking	-8255
zed	-8256
▁Street	-8257
▁{})	-8258
kins	-8259
crement	-8260
▁ingred	-8261
▁ban	-8262
▁wear	-8263
iteritems	-8264
▁Div	-8265
▁il	-8266
▁village	-8267
▁evaluation	-8268
▁thin	-8269
▁corpor	-8270
▁marine	-8271
Sm	-8272
▁Long	-8273
edy	-8274
▁repr	-8275
▁wish	-8276
anda	-8277
relation	-8278
▁foo	-8279
▁resp	-8280
ixel	-8281
▁tables	-8282
▁rail	-8283
’.	-8284
▁translation	-8285
▁pig	-8286
ationError	-8287
squ	-8288
▁Commit	-8289
decl	-8290
▁horse	-8291
▁facilit	-8292
▁tmp	-8293
meth	-8294
▁Pass	-8295
country	-8296
▁dream	-8297
ville	-8298
temporary	-8299
▁regularly	-8300
▁categories	-8301
▁ble	-8302
Reference	-8303
▁infrastructure	-8304
Since	-8305
▁sentence	-8306
▁principle	-8307
▁Dan	-8308
repe	-8309
▁mes	-8310
▁theme	-8311
▁ade	-8312
cookie	-8313
▁parallel	-8314
awn	-8315
▁encounter	-8316
oul	-8317
▁advoc	-8318
TIME	-8319
wx	-8320
▁diag	-8321
▁deaths	-8322
archy	-8323
regular	-8324
▁Global	-8325
itz	-8326
pred	-8327
▁formal	-8328
▁valuable	-8329
gb	-8330
▁fertil	-8331
▁lessons	-8332
osv	-8333
▁unable	-8334
('<	-8335
([])	-8336
impl	-8337
▁confirm	-8338
▁recover	-8339
▁expressed	-8340
▁rub	-8341
▁proxy	-8342
▁mobile	-8343
▁inches	-8344
SP	-8345
▁ancest	-8346
AF	-8347
apps	-8348
strings	-8349
steps	-8350
iated	-8351
▁processed	-8352
▁Po	-8353
}'.	-8354
ongo	-8355
ERT	-8356
subject	-8357
▁mixed	-8358
▁Nature	-8359
▁CF	-8360
▁mail	-8361
▁gar	-8362
▁lookup	-8363
UTE	-8364
▁bits	-8365
▁millions	-8366
.",	-8367
browser	-8368
▁scheme	-8369
begin	-8370
cling	-8371
▁Land	-8372
Err	-8373
▁interact	-8374
Delete	-8375
▁capture	-8376
▁www	-8377
Fail	-8378
▁Us	-8379
irth	-8380
ansion	-8381
orrow	-8382
▁Federal	-8383
▁mos	-8384
onym	-8385
▁sky	-8386
Top	-8387
unknown	-8388
visible	-8389
dtypes	-8390
▁guaran	-8391
▁copies	-8392
▁pregnancy	-8393
▁resolution	-8394
tasks	-8395
Policy	-8396
▁opinion	-8397
../	-8398
jac	-8399
▁Try	-8400
ulin	-8401
▁producing	-8402
▁'{	-8403
▁attitude	-8404
▁vm	-8405
JECT	-8406
▁nutrition	-8407
▁driving	-8408
Core	-8409
▁Franc	-8410
reader	-8411
▁"--	-8412
▁sections	-8413
tax	-8414
ilds	-8415
bus	-8416
outs	-8417
▁destination	-8418
▁funding	-8419
▁handling	-8420
▁appearance	-8421
▁requested	-8422
▁enhance	-8423
▁Cr	-8424
▁fn	-8425
▁syn	-8426
license	-8427
▁gun	-8428
▁stats	-8429
▁flight	-8430
lab	-8431
▁pytest	-8432
eg	-8433
ounce	-8434
▁reset	-8435
▁Good	-8436
▁Source	-8437
////////////////	-8438
Fin	-8439
▁understood	-8440
DATE	-8441
books	-8442
▁Alex	-8443
kes	-8444
aration	-8445
virt	-8446
scheme	-8447
▁boolean	-8448
Lib	-8449
ald	-8450
olester	-8451
hello	-8452
▁passing	-8453
king	-8454
▁finished	-8455
▁agriculture	-8456
▁append	-8457
beta	-8458
kit	-8459
▁Hand	-8460
ifferent	-8461
▁Environmental	-8462
▁possibility	-8463
▁IO	-8464
~~~~~~~~	-8465
▁Psych	-8466
▁OTHER	-8467
▁Studies	-8468
▁angle	-8469
▁satell	-8470
▁vers	-8471
▁Ann	-8472
▁recur	-8473
▁temporary	-8474
▁colour	-8475
▁prevention	-8476
▁references	-8477
chema	-8478
registry	-8479
▁brown	-8480
▁coff	-8481
▁stages	-8482
plus	-8483
(?:	-8484
▁decide	-8485
otic	-8486
▁cursor	-8487
Store	-8488
poly	-8489
olesc	-8490
ategor	-8491
▁df	-8492
HERE	-8493
▁Line	-8494
▁houses	-8495
zKet	-8496
anches	-8497
+'	-8498
▁creative	-8499
Match	-8500
▁intelligence	-8501
▁introduction	-8502
Does	-8503
ftime	-8504
separ	-8505
▁agree	-8506
▁Multi	-8507
▁computers	-8508
ctic	-8509
DES	-8510
▁exit	-8511
exclude	-8512
Gen	-8513
▁Constitution	-8514
':'	-8515
legal	-8516
""")	-8517
▁gal	-8518
▁maintenance	-8519
▁Oper	-8520
▁moon	-8521
lineno	-8522
▁regional	-8523
COMM	-8524
isinstance	-8525
REQU	-8526
dimension	-8527
▁environments	-8528
▁lifest	-8529
REE	-8530
▁lat	-8531
▁embed	-8532
essed	-8533
▁narr	-8534
▁sudden	-8535
▁myth	-8536
▁remark	-8537
ikip	-8538
▁converted	-8539
▁chief	-8540
▁era	-8541
▁businesses	-8542
▁Image	-8543
activity	-8544
running	-8545
olesterol	-8546
▁callable	-8547
▁vehicles	-8548
▁Roy	-8549
▁soldiers	-8550
:``	-8551
Let	-8552
▁sparse	-8553
▁plate	-8554
▁inflammation	-8555
▁sess	-8556
▁Scient	-8557
ulator	-8558
▁agreement	-8559
▁administration	-8560
▁Wil	-8561
▁egg	-8562
FLAGS	-8563
▁acceler	-8564
merge	-8565
oval	-8566
itespace	-8567
RAW	-8568
▁▁▁▁▁	-8569
▁poem	-8570
agues	-8571
▁Office	-8572
▁Francis	-8573
DEBUG	-8574
▁intake	-8575
Bad	-8576
have	-8577
▁fly	-8578
▁Valid	-8579
▁leadership	-8580
▁Columb	-8581
▁positions	-8582
hass	-8583
▁concrete	-8584
nesses	-8585
scan	-8586
Empty	-8587
▁Call	-8588
▁manufactur	-8589
aming	-8590
▁mamm	-8591
HEAD	-8592
osh	-8593
\'	-8594
occ	-8595
arange	-8596
▁strengthen	-8597
▁font	-8598
▁revealed	-8599
amps	-8600
shared	-8601
dense	-8602
▁antibiot	-8603
shell	-8604
Dist	-8605
▁alpha	-8606
▁universe	-8607
▁pun	-8608
▁spect	-8609
▁comprehensive	-8610
scriptions	-8611
DP	-8612
▁Pan	-8613
▁folder	-8614
AV	-8615
Look	-8616
Helper	-8617
week	-8618
employ	-8619
uce	-8620
▁consumer	-8621
▁marriage	-8622
▁Ca	-8623
area	-8624
usters	-8625
▁indices	-8626
▁^	-8627
▁Sign	-8628
FIL	-8629
fish	-8630
▁intellect	-8631
pages	-8632
LEN	-8633
Local	-8634
"",	-8635
ynamic	-8636
▁appreci	-8637
foot	-8638
▁tiny	-8639
teen	-8640
▁speaking	-8641
▁Article	-8642
hma	-8643
sts	-8644
push	-8645
▁pin	-8646
delay	-8647
▁Virginia	-8648
▁whatever	-8649
']))	-8650
reland	-8651
ette	-8652
▁Home	-8653
linear	-8654
▁figures	-8655
▁syndrome	-8656
▁About	-8657
seek	-8658
▁bear	-8659
▁infected	-8660
ulary	-8661
wrapper	-8662
(["	-8663
etry	-8664
▁Boston	-8665
▁massive	-8666
▁achieved	-8667
facts	-8668
▁guidelines	-8669
▁registered	-8670
tle	-8671
▁statistics	-8672
▁listen	-8673
▁;	-8674
omach	-8675
▁adds	-8676
uplicate	-8677
▁mm	-8678
parsed	-8679
▁purchase	-8680
evalu	-8681
▁Change	-8682
align	-8683
river	-8684
▁improving	-8685
▁cart	-8686
▁bones	-8687
▁adopted	-8688
Your	-8689
▁Louis	-8690
▁fav	-8691
permission	-8692
EMPL	-8693
▁experiments	-8694
mc	-8695
LOCK	-8696
esity	-8697
duction	-8698
▁indeed	-8699
rh	-8700
▁architecture	-8701
▁cars	-8702
▁volunte	-8703
▁Canadian	-8704
▁execution	-8705
▁worldwide	-8706
▁Gr	-8707
quality	-8708
▁Well	-8709
▁verb	-8710
▁instructions	-8711
▁lots	-8712
▁Auth	-8713
▁museum	-8714
eli	-8715
ests	-8716
▁mand	-8717
▁waves	-8718
Connect	-8719
connected	-8720
Are	-8721
Children	-8722
▁linear	-8723
▁rect	-8724
▁abund	-8725
▁budget	-8726
▁spl	-8727
posal	-8728
▁hidden	-8729
▁doctors	-8730
▁administr	-8731
▁Gal	-8732
▁extensive	-8733
transaction	-8734
▁Op	-8735
▁happy	-8736
▁lands	-8737
▁tells	-8738
'[	-8739
▁medication	-8740
▁interaction	-8741
adow	-8742
FORMAT	-8743
ertain	-8744
timeError	-8745
ohn	-8746
raining	-8747
reduce	-8748
▁assistance	-8749
aken	-8750
allowed	-8751
▁manufacturing	-8752
arc	-8753
VALID	-8754
▁ali	-8755
Vol	-8756
▁dust	-8757
oci	-8758
▁~	-8759
rac	-8760
chemy	-8761
▁belief	-8762
▁thor	-8763
ikipedia	-8764
ETE	-8765
▁Look	-8766
▁priority	-8767
onomy	-8768
▁Soviet	-8769
▁troops	-8770
▁stderr	-8771
translate	-8772
▁transmission	-8773
▁cer	-8774
▁agencies	-8775
dns	-8776
ocabulary	-8777
▁icon	-8778
▁forests	-8779
IED	-8780
icing	-8781
▁landscape	-8782
}".	-8783
▁circumstances	-8784
Inst	-8785
services	-8786
▁warming	-8787
▁permanent	-8788
▁identifier	-8789
▁checks	-8790
▁readers	-8791
▁orient	-8792
zil	-8793
osing	-8794
ashion	-8795
olf	-8796
▁Dat	-8797
▁granted	-8798
▁immediate	-8799
▁survival	-8800
▁diverse	-8801
har	-8802
▁transition	-8803
]',	-8804
▁slowly	-8805
▁battery	-8806
getLogger	-8807
xxxx	-8808
▁href	-8809
udo	-8810
▁vote	-8811
▁doubt	-8812
('.	-8813
shop	-8814
▁addresses	-8815
liament	-8816
"}),	-8817
▁pump	-8818
▁sharing	-8819
cknow	-8820
▁Cap	-8821
▁bridge	-8822
migrations	-8823
▁segment	-8824
()):	-8825
▁gone	-8826
▁editor	-8827
program	-8828
▁Peter	-8829
▁sweet	-8830
oral	-8831
Feature	-8832
esis	-8833
▁tub	-8834
abits	-8835
▁Those	-8836
:'	-8837
Pref	-8838
Import	-8839
unpack	-8840
▁survive	-8841
SSL	-8842
▁simpl	-8843
Sum	-8844
▁prem	-8845
may	-8846
▁conven	-8847
▁factory	-8848
▁harmful	-8849
igate	-8850
``,	-8851
▁spr	-8852
▁insects	-8853
__.__	-8854
▁decline	-8855
▁Florida	-8856
▁expansion	-8857
umps	-8858
ropical	-8859
▁transaction	-8860
▁stroke	-8861
▁aircraft	-8862
▁wildlife	-8863
SG	-8864
▁Writ	-8865
OPT	-8866
▁plays	-8867
orms	-8868
Record	-8869
tb	-8870
▁manip	-8871
▁seeing	-8872
▁percentage	-8873
dummy	-8874
▁holds	-8875
ilation	-8876
rise	-8877
loy	-8878
Tool	-8879
▁instant	-8880
▁injuries	-8881
izontal	-8882
▁healthcare	-8883
Med	-8884
getattr	-8885
OFP	-8886
▁electronic	-8887
▁Nations	-8888
▁fewer	-8889
asset	-8890
▁IMPL	-8891
▁hook	-8892
fed	-8893
Unit	-8894
▁ring	-8895
▁Security	-8896
▁opposite	-8897
▁Yet	-8898
calls	-8899
▁login	-8900
▁destroyed	-8901
NN	-8902
standard	-8903
brew	-8904
▁aqu	-8905
▁Michael	-8906
ola	-8907
distance	-8908
orse	-8909
itative	-8910
▁estimate	-8911
aret	-8912
▁shapes	-8913
▁ped	-8914
▁grav	-8915
▁circuit	-8916
imp	-8917
Util	-8918
VICE	-8919
▁feedback	-8920
OM	-8921
▁idx	-8922
formats	-8923
fa	-8924
▁supporting	-8925
Proxy	-8926
:"	-8927
▁mountain	-8928
▁Ireland	-8929
='',	-8930
fold	-8931
▁truly	-8932
ita	-8933
family	-8934
▁supplement	-8935
gov	-8936
ensors	-8937
AGES	-8938
▁worker	-8939
()]	-8940
will	-8941
▁Vari	-8942
▁imper	-8943
DL	-8944
▁conn	-8945
▁ourselves	-8946
TC	-8947
kt	-8948
asy	-8949
▁photos	-8950
▁drawing	-8951
▁ath	-8952
▁Vict	-8953
▁decade	-8954
▁foundation	-8955
▁door	-8956
ceive	-8957
▁routine	-8958
▁difficulty	-8959
yr	-8960
▁joined	-8961
▁windows	-8962
anta	-8963
▁<<	-8964
eros	-8965
tables	-8966
▁dental	-8967
▁fetch	-8968
▁household	-8969
you	-8970
▁hus	-8971
▁Keep	-8972
▁nose	-8973
▁knows	-8974
relative	-8975
ioxide	-8976
▁fiber	-8977
ostFtdc	-8978
clone	-8979
▁furn	-8980
ThostFtdc	-8981
descriptor	-8982
▁controls	-8983
▁signed	-8984
dy	-8985
Det	-8986
▁wasn	-8987
Figure	-8988
ingly	-8989
erves	-8990
▁skill	-8991
▁Joseph	-8992
tected	-8993
worker	-8994
rained	-8995
▁logic	-8996
ao	-8997
▁mel	-8998
▁necessarily	-8999
burg	-9000
CRE	-9001
DEF	-9002
▁Mont	-9003
rp	-9004
ampling	-9005
percent	-9006
▁fossil	-9007
▁constructed	-9008
elem	-9009
▁Eth	-9010
)?	-9011
▁mur	-9012
dependencies	-9013
▁Ev	-9014
__()	-9015
ican	-9016
▁flood	-9017
dc	-9018
clip	-9019
onds	-9020
▁constitution	-9021
previous	-9022
▁coun	-9023
▁struggle	-9024
tp	-9025
▁Jud	-9026
▁electro	-9027
▁beneficial	-9028
ione	-9029
absent	-9030
unched	-9031
▁deleted	-9032
▁organized	-9033
▁plain	-9034
FE	-9035
▁CH	-9036
▁sports	-9037
Sim	-9038
yaml	-9039
▁gap	-9040
▁Southern	-9041
▁duration	-9042
▁parsed	-9043
AIL	-9044
▁consumers	-9045
topic	-9046
inction	-9047
ialect	-9048
permissions	-9049
Remove	-9050
▁menu	-9051
instances	-9052
▁supposed	-9053
Has	-9054
▁confidence	-9055
qty	-9056
▁stable	-9057
functions	-9058
▁statements	-9059
notes	-9060
▁sell	-9061
mag	-9062
iminal	-9063
abb	-9064
▁plus	-9065
factor	-9066
▁Path	-9067
BS	-9068
▁backend	-9069
▁Design	-9070
▁steel	-9071
▁gall	-9072
zo	-9073
▁dependent	-9074
MAP	-9075
▁journey	-9076
PH	-9077
▁Method	-9078
▁audience	-9079
\"	-9080
▁professionals	-9081
share	-9082
internet	-9083
contains	-9084
ributions	-9085
icide	-9086
▁Node	-9087
revision	-9088
▁greatly	-9089
▁Non	-9090
uma	-9091
Main	-9092
READ	-9093
SU	-9094
ymph	-9095
▁engage	-9096
ching	-9097
▁desire	-9098
▁DAM	-9099
▁laboratory	-9100
Cur	-9101
Job	-9102
devices	-9103
▁Through	-9104
▁explanation	-9105
▁scene	-9106
iatric	-9107
Menu	-9108
▁dedicated	-9109
)+	-9110
▁discipl	-9111
gre	-9112
▁partial	-9113
fare	-9114
▁dates	-9115
▁newsp	-9116
▁machines	-9117
ras	-9118
▁Australian	-9119
Book	-9120
bro	-9121
cale	-9122
native	-9123
▁communicate	-9124
▁sheet	-9125
▁smooth	-9126
dispatch	-9127
LOW	-9128
igma	-9129
LED	-9130
▁Professor	-9131
▁carefully	-9132
define	-9133
origin	-9134
PROC	-9135
▁tit	-9136
icago	-9137
chmark	-9138
▁migration	-9139
▁alle	-9140
tical	-9141
▁roles	-9142
records	-9143
▁stomach	-9144
rm	-9145
▁kernel	-9146
JSON	-9147
Matrix	-9148
▁sight	-9149
▁agency	-9150
oked	-9151
iration	-9152
DT	-9153
si	-9154
▁Ill	-9155
▁merge	-9156
▁daughter	-9157
isters	-9158
outer	-9159
▁issued	-9160
▁powers	-9161
▁neck	-9162
▁Current	-9163
.’	-9164
NE	-9165
axes	-9166
nger	-9167
▁maybe	-9168
lets	-9169
▁Mars	-9170
▁conversion	-9171
▁ama	-9172
Any	-9173
▁neither	-9174
▁suffix	-9175
}.	-9176
cart	-9177
night	-9178
▁attempts	-9179
failure	-9180
Files	-9181
▁audio	-9182
▁institution	-9183
▁Teach	-9184
gettext	-9185
aliases	-9186
▁coffee	-9187
▁calcium	-9188
▁Rome	-9189
▁declared	-9190
▁Bul	-9191
Vis	-9192
▁Stat	-9193
▁holding	-9194
▁Det	-9195
▁ISBN	-9196
▁tokens	-9197
▁decode	-9198
sey	-9199
ixtures	-9200
ervation	-9201
exe	-9202
▁detected	-9203
was	-9204
▁acids	-9205
▁Committee	-9206
▁insurance	-9207
▁accessible	-9208
▁supplied	-9209
▁thr	-9210
▁ships	-9211
Big	-9212
▁quote	-9213
IPT	-9214
walk	-9215
▁storm	-9216
▁closer	-9217
Course	-9218
▁cholesterol	-9219
▁meth	-9220
▁LIMIT	-9221
▁Gold	-9222
atty	-9223
▁emotions	-9224
}/	-9225
▁aw	-9226
bd	-9227
nsure	-9228
ih	-9229
▁openerp	-9230
lder	-9231
▁fails	-9232
Article	-9233
rig	-9234
Lear	-9235
oster	-9236
▁Event	-9237
▁supplies	-9238
▁younger	-9239
▁studying	-9240
ORY	-9241
▁Step	-9242
problem	-9243
▁standing	-9244
▁functional	-9245
▁observations	-9246
▁Pers	-9247
▁corn	-9248
▁accuracy	-9249
▁turns	-9250
▁ultimately	-9251
inking	-9252
OLD	-9253
lv	-9254
bour	-9255
▁Bur	-9256
▁authorities	-9257
anes	-9258
omial	-9259
▁Wild	-9260
▁chrom	-9261
▁calculate	-9262
lik	-9263
▁Know	-9264
Float	-9265
setdefault	-9266
including	-9267
Product	-9268
pended	-9269
▁Review	-9270
[[	-9271
▁Care	-9272
bur	-9273
Each	-9274
▁Big	-9275
▁childhood	-9276
▁molecules	-9277
Account	-9278
setting	-9279
')]	-9280
▁Paris	-9281
endpoint	-9282
ena	-9283
mut	-9284
▁unus	-9285
visit	-9286
▁draft	-9287
▁cutting	-9288
▁panel	-9289
▁critic	-9290
▁composition	-9291
gression	-9292
▁colleagues	-9293
▁Dig	-9294
election	-9295
▁dioxide	-9296
▁Jack	-9297
ese	-9298
(_("	-9299
▁inspect	-9300
▁Northern	-9301
##############	-9302
cu	-9303
▁acknow	-9304
rollment	-9305
REG	-9306
ben	-9307
▁scr	-9308
WR	-9309
omes	-9310
idity	-9311
▁ethnic	-9312
▁camera	-9313
compiler	-9314
▁trained	-9315
DU	-9316
▁tar	-9317
transport	-9318
▁cultures	-9319
validation	-9320
▁behaviors	-9321
▁rat	-9322
▁sod	-9323
American	-9324
▁operate	-9325
subclass	-9326
▁Reserved	-9327
▁Face	-9328
LINE	-9329
▁dynamic	-9330
▁BUT	-9331
)|	-9332
imit	-9333
requ	-9334
▁delivery	-9335
▁smoke	-9336
▁walking	-9337
pag	-9338
▁Iss	-9339
omain	-9340
▁arrived	-9341
PU	-9342
▁Italy	-9343
▁router	-9344
localhost	-9345
itivity	-9346
▁forget	-9347
▁loaded	-9348
Opt	-9349
VAR	-9350
▁Cult	-9351
Change	-9352
▁minute	-9353
▁precision	-9354
small	-9355
▁stands	-9356
▁bread	-9357
▁therap	-9358
▁Av	-9359
▁moves	-9360
▁founded	-9361
published	-9362
fixed	-9363
absolute	-9364
▁lifestyle	-9365
ady	-9366
lig	-9367
------	-9368
============	-9369
afe	-9370
Ident	-9371
Position	-9372
cnt	-9373
’,	-9374
FIX	-9375
▁sav	-9376
ammat	-9377
Copy	-9378
▁Tim	-9379
▁BC	-9380
Program	-9381
Using	-9382
▁Natural	-9383
▁certificate	-9384
,),	-9385
igrate	-9386
▁funds	-9387
▁whereas	-9388
servers	-9389
▁displayed	-9390
avy	-9391
dims	-9392
▁objective	-9393
▁NE	-9394
▁interval	-9395
▁thousand	-9396
▁expr	-9397
processing	-9398
inos	-9399
▁photo	-9400
▁shop	-9401
(',	-9402
▁Disease	-9403
▁players	-9404
▁accident	-9405
utch	-9406
▁philosophy	-9407
want	-9408
▁LIC	-9409
izard	-9410
Av	-9411
seen	-9412
Argument	-9413
▁married	-9414
▁regulations	-9415
:`~	-9416
▁Date	-9417
▁Spain	-9418
%.	-9419
compare	-9420
▁Camp	-9421
▁cred	-9422
▁Cancer	-9423
▁Object	-9424
▁manual	-9425
▁Special	-9426
▁nine	-9427
▁intervention	-9428
▁blo	-9429
▁ahead	-9430
▁IMPLIED	-9431
▁mechanisms	-9432
inent	-9433
▁Function	-9434
▁StringIO	-9435
Once	-9436
▁Study	-9437
mid	-9438
ester	-9439
▁plane	-9440
▁Academy	-9441
athers	-9442
cv	-9443
▁entered	-9444
ROOT	-9445
__":	-9446
▁roof	-9447
SM	-9448
Mark	-9449
authent	-9450
CThostFtdc	-9451
▁feeding	-9452
▁rid	-9453
oned	-9454
NING	-9455
erry	-9456
asp	-9457
▁Tensor	-9458
\.	-9459
▁BE	-9460
▁Brown	-9461
AUTH	-9462
embed	-9463
▁occasion	-9464
▁Module	-9465
▁biggest	-9466
AttributeValue	-9467
hips	-9468
lear	-9469
abstract	-9470
▁Mad	-9471
▁Pri	-9472
▁extend	-9473
▁Board	-9474
▁Qgs	-9475
NetDevice	-9476
▁enemy	-9477
▁willing	-9478
:])	-9479
▁vessels	-9480
▁ske	-9481
statement	-9482
▁cards	-9483
▁recip	-9484
clop	-9485
▁nova	-9486
▁trip	-9487
mox	-9488
▁Max	-9489
▁craft	-9490
▁SE	-9491
*.	-9492
▁fung	-9493
Prefix	-9494
bell	-9495
certain	-9496
▁resolve	-9497
destination	-9498
Non	-9499
▁CA	-9500
▁cup	-9501
Document	-9502
▁trouble	-9503
▁Bas	-9504
▁lies	-9505
Description	-9506
▁vulnerable	-9507
▁frequent	-9508
▁conventional	-9509
Descript	-9510
▁Django	-9511
▁magnetic	-9512
▁subsequent	-9513
▁Bank	-9514
▁neur	-9515
▁//	-9516
▁swim	-9517
▁shot	-9518
▁dialog	-9519
processed	-9520
ln	-9521
▁Clin	-9522
▁customers	-9523
▁Creat	-9524
partial	-9525
▁outputs	-9526
▁participate	-9527
ocy	-9528
tons	-9529
metrics	-9530
MT	-9531
▁alert	-9532
▁newly	-9533
inja	-9534
▁fighting	-9535
gal	-9536
about	-9537
born	-9538
props	-9539
Deleter	-9540
▁substantial	-9541
)')	-9542
aci	-9543
▁inhib	-9544
hint	-9545
▁throw	-9546
▁tea	-9547
▁Ox	-9548
▁afford	-9549
▁AC	-9550
Ans	-9551
▁episode	-9552
pie	-9553
ulates	-9554
▁tempfile	-9555
▁Cur	-9556
▁Mill	-9557
▁Column	-9558
omy	-9559
MC	-9560
RC	-9561
▁sensor	-9562
rolling	-9563
▁attend	-9564
dag	-9565
jar	-9566
May	-9567
speed	-9568
umbn	-9569
▁advert	-9570
▁Whether	-9571
▁voltage	-9572
plib	-9573
▁Haw	-9574
▁Does	-9575
pending	-9576
imet	-9577
archive	-9578
▁drawn	-9579
templates	-9580
uality	-9581
▁ended	-9582
Metadata	-9583
▁LICENSE	-9584
irds	-9585
▁scores	-9586
'/	-9587
?"	-9588
micro	-9589
▁Comput	-9590
nce	-9591
ushed	-9592
']"}),	-9593
astype	-9594
mapper	-9595
▁university	-9596
▁Process	-9597
▁lic	-9598
▁tor	-9599
deleted	-9600
▁arrays	-9601
▁clock	-9602
afety	-9603
olate	-9604
&#	-9605
Http	-9606
▁Empire	-9607
▁territory	-9608
oauth	-9609
▁Brazil	-9610
ti	-9611
Research	-9612
PFN	-9613
▁fra	-9614
RefCount	-9615
uan	-9616
▁grew	-9617
mediate	-9618
▁los	-9619
han	-9620
mn	-9621
▁centers	-9622
▁instruments	-9623
▁hydrogen	-9624
▁brother	-9625
▁criteria	-9626
▁rely	-9627
▁WH	-9628
sheet	-9629
'-	-9630
▁association	-9631
▁compounds	-9632
▁estimates	-9633
▁examine	-9634
▁printed	-9635
SimpleRefCount	-9636
▁Ref	-9637
▁transportation	-9638
sgi	-9639
riers	-9640
▁pron	-9641
indu	-9642
▁disappe	-9643
▁committed	-9644
eras	-9645
olver	-9646
six	-9647
others	-9648
▁debate	-9649
▁rising	-9650
▁gluc	-9651
▁surve	-9652
▁taste	-9653
SY	-9654
deps	-9655
resent	-9656
▁•	-9657
▁nob	-9658
typ	-9659
icted	-9660
▁propag	-9661
▁Richard	-9662
▁resulted	-9663
▁stores	-9664
fun	-9665
▁butter	-9666
▁covers	-9667
channels	-9668
GS	-9669
▁circle	-9670
▁Sl	-9671
▁Pop	-9672
orous	-9673
DD	-9674
>')	-9675
CRIPT	-9676
Struct	-9677
▁Services	-9678
CTION	-9679
▁demonstrate	-9680
▁[-	-9681
▁cryst	-9682
▁robot	-9683
Dialog	-9684
▁receiving	-9685
▁recognition	-9686
▁indicated	-9687
Sk	-9688
Enum	-9689
handlers	-9690
venue	-9691
▁prove	-9692
▁habits	-9693
▁housing	-9694
UI	-9695
▁centre	-9696
hor	-9697
PRESS	-9698
codes	-9699
▁Take	-9700
▁grant	-9701
matic	-9702
▁nearby	-9703
▁matters	-9704
▁Royal	-9705
▁Sciences	-9706
ami	-9707
▁Cre	-9708
▁teen	-9709
▁Valley	-9710
▁Fil	-9711
▁Forest	-9712
same	-9713
▁psychological	-9714
▁launched	-9715
▁eastern	-9716
▁drag	-9717
▁demonstrated	-9718
▁debt	-9719
freq	-9720
doctype	-9721
▁waiting	-9722
▁Block	-9723
▁cats	-9724
▁LIMITED	-9725
good	-9726
▁trials	-9727
ifts	-9728
▁replacement	-9729
▁sizes	-9730
dependent	-9731
▁defe	-9732
editor	-9733
▁meters	-9734
locate	-9735
Information	-9736
cancel	-9737
comments	-9738
*(	-9739
configure	-9740
▁separated	-9741
▁artificial	-9742
ibl	-9743
▁improvement	-9744
▁Top	-9745
aired	-9746
▁definit	-9747
gpu	-9748
▁breathing	-9749
▁reactions	-9750
vec	-9751
▁Have	-9752
▁sole	-9753
▁veter	-9754
▁QtGui	-9755
▁shock	-9756
disable	-9757
▁Optional	-9758
▁respectively	-9759
oi	-9760
sions	-9761
▁presentation	-9762
gf	-9763
ften	-9764
aland	-9765
viation	-9766
▁AI	-9767
rovers	-9768
▁Remove	-9769
#:	-9770
▁timestamp	-9771
▁outdo	-9772
▁coverage	-9773
etc	-9774
IBUT	-9775
Sl	-9776
atterns	-9777
▁(-	-9778
▁dent	-9779
▁assumed	-9780
":"	-9781
ICT	-9782
Load	-9783
▁kit	-9784
▁Secret	-9785
Settings	-9786
▁Connect	-9787
tery	-9788
▁Times	-9789
▁III	-9790
bc	-9791
CONFIG	-9792
▁orbit	-9793
▁twenty	-9794
▁collap	-9795
▁guid	-9796
▁department	-9797
▁tz	-9798
▁thy	-9799
paces	-9800
▁beliefs	-9801
creation	-9802
▁SP	-9803
cwd	-9804
▁repair	-9805
▁employment	-9806
iterator	-9807
▁adolesc	-9808
▁detection	-9809
▁agents	-9810
▁forth	-9811
▁Bus	-9812
▁soul	-9813
CONT	-9814
▁Should	-9815
priority	-9816
▁constants	-9817
▁returning	-9818
:',	-9819
LY	-9820
▁Media	-9821
LC	-9822
▁vac	-9823
▁participation	-9824
▁browser	-9825
▁programming	-9826
obile	-9827
▁hosts	-9828
▁Back	-9829
cope	-9830
charge	-9831
Every	-9832
▁Chem	-9833
Parent	-9834
▁competition	-9835
▁raises	-9836
▁calc	-9837
FS	-9838
▁enforce	-9839
▁od	-9840
ottom	-9841
▁nerve	-9842
egg	-9843
▁formula	-9844
pic	-9845
Send	-9846
wiki	-9847
▁abstract	-9848
▁organisms	-9849
▁partition	-9850
closed	-9851
▁serving	-9852
▁updates	-9853
▁contamin	-9854
haust	-9855
▁{},	-9856
quir	-9857
▁Ocean	-9858
▁Where	-9859
Results	-9860
team	-9861
roun	-9862
▁Ama	-9863
▁prescrib	-9864
bel	-9865
▁preval	-9866
Descriptor	-9867
Because	-9868
▁checking	-9869
equ	-9870
aked	-9871
▁legs	-9872
▁Pract	-9873
▁Italian	-9874
▁interactions	-9875
everal	-9876
▁tank	-9877
▁respir	-9878
▁greenhouse	-9879
▁Johns	-9880
▁boundary	-9881
▁maintaining	-9882
Tra	-9883
locale	-9884
▁edges	-9885
▁corner	-9886
BASE	-9887
▁Jac	-9888
etics	-9889
inson	-9890
▁putting	-9891
)")	-9892
LOC	-9893
▁Georg	-9894
multiple	-9895
▁intellectual	-9896
iah	-9897
oon	-9898
▁finish	-9899
TextField	-9900
pin	-9901
▁channels	-9902
▁politics	-9903
ORE	-9904
isdom	-9905
▁pred	-9906
also	-9907
setUp	-9908
formed	-9909
journal	-9910
Stop	-9911
▁blow	-9912
▁sympy	-9913
▁involving	-9914
▁generations	-9915
eps	-9916
Pool	-9917
▁reliable	-9918
▁nerv	-9919
Profile	-9920
▁Native	-9921
▁probability	-9922
Sw	-9923
▁Gard	-9924
▁Carolina	-9925
asters	-9926
▁deprecated	-9927
▁THIS	-9928
idespread	-9929
alm	-9930
href	-9931
▁alt	-9932
▁negot	-9933
▁Chicago	-9934
reek	-9935
▁Wood	-9936
▁conj	-9937
▁Agricult	-9938
▁')	-9939
peror	-9940
']",	-9941
▁county	-9942
▁integrated	-9943
Br	-9944
▁crow	-9945
▁Party	-9946
▁ctx	-9947
▁obesity	-9948
ala	-9949
▁Scott	-9950
▁MD	-9951
blue	-9952
quant	-9953
▁approved	-9954
▁election	-9955
▁strongly	-9956
Even	-9957
▁mice	-9958
CHAR	-9959
▁hole	-9960
▁DB	-9961
bing	-9962
erty	-9963
hyth	-9964
strftime	-9965
compatible	-9966
▁Pos	-9967
▁permitted	-9968
▁confirmed	-9969
▁Publ	-9970
Bytes	-9971
▁everyday	-9972
▁diagnosed	-9973
ritis	-9974
pres	-9975
▁composed	-9976
ki	-9977
Const	-9978
▁outcome	-9979
gregation	-9980
counts	-9981
▁Irish	-9982
▁BY	-9983
▁alias	-9984
▁bucket	-9985
▁Template	-9986
▁Organization	-9987
chen	-9988
Loader	-9989
olds	-9990
iac	-9991
▁union	-9992
▁recept	-9993
▁decimal	-9994
UND	-9995
▁membr	-9996
▁ongoing	-9997
asive	-9998
ipher	-9999
▁sacr	-10000
▁danger	-10001
▁street	-10002
PFNGL	-10003
nx	-10004
▁Men	-10005
▁fell	-10006
rounded	-10007
Rest	-10008
urtle	-10009
▁Ent	-10010
▁passage	-10011
▁consume	-10012
▁ec	-10013
▁checked	-10014
igrants	-10015
▁somewhat	-10016
▁prohib	-10017
▁Word	-10018
▁asthma	-10019
Password	-10020
▁publish	-10021
ifi	-10022
Values	-10023
▁interactive	-10024
asty	-10025
hard	-10026
ogram	-10027
▁fever	-10028
▁texts	-10029
▁ctypes	-10030
▁captured	-10031
▁lect	-10032
▁peer	-10033
friend	-10034
onia	-10035
▁spending	-10036
watch	-10037
▁worry	-10038
|'	-10039
orted	-10040
Also	-10041
aneous	-10042
▁destruction	-10043
east	-10044
Common	-10045
▁chick	-10046
▁assets	-10047
▁calories	-10048
▁exercises	-10049
▁Meta	-10050
▁painting	-10051
distribution	-10052
IDS	-10053
Mult	-10054
aque	-10055
▁Viet	-10056
▁kidney	-10057
uts	-10058
aks	-10059
Comple	-10060
Location	-10061
▁LIABILITY	-10062
>,	-10063
Reader	-10064
▁arrest	-10065
▁smoking	-10066
▁tissues	-10067
▁Page	-10068
▁Lab	-10069
throp	-10070
▁caught	-10071
Operation	-10072
▁Victor	-10073
▁disabled	-10074
OUR	-10075
Person	-10076
▁traceback	-10077
tail	-10078
olars	-10079
▁Climate	-10080
,-	-10081
article	-10082
▁printing	-10083
vl	-10084
hab	-10085
Mask	-10086
▁ok	-10087
▁preserve	-10088
▁guess	-10089
▁Redist	-10090
▁conclusion	-10091
tri	-10092
▁AP	-10093
aaaa	-10094
▁sequences	-10095
▁explicitly	-10096
Spe	-10097
▁fasc	-10098
▁pickle	-10099
▁Den	-10100
Two	-10101
ishment	-10102
▁physics	-10103
]).	-10104
decor	-10105
▁TV	-10106
rent	-10107
▁Revolution	-10108
▁cp	-10109
▁measurement	-10110
▁Pet	-10111
inated	-10112
fixture	-10113
BE	-10114
havior	-10115
▁maintained	-10116
▁discrimination	-10117
raq	-10118
rates	-10119
Unknown	-10120
▁writes	-10121
iov	-10122
▁fo	-10123
▁brings	-10124
oves	-10125
nested	-10126
▁coastal	-10127
LD	-10128
▁Gre	-10129
balance	-10130
▁Before	-10131
▁complicated	-10132
▁motiv	-10133
▁minerals	-10134
▁retain	-10135
▁executed	-10136
Del	-10137
poll	-10138
Report	-10139
inline	-10140
▁fashion	-10141
▁subclass	-10142
▁tract	-10143
cia	-10144
lazy	-10145
ENCE	-10146
▁facility	-10147
vin	-10148
▁branches	-10149
▁insulin	-10150
▁publication	-10151
▁expanded	-10152
▁papers	-10153
▁molecular	-10154
DIS	-10155
▁packages	-10156
▁Map	-10157
YRIGHT	-10158
ighter	-10159
CB	-10160
▁Oh	-10161
▁mood	-10162
asm	-10163
▁wheel	-10164
▁que	-10165
▁honor	-10166
▁legislation	-10167
literals	-10168
▁turning	-10169
Impl	-10170
▁crime	-10171
"]:	-10172
▁Fire	-10173
negative	-10174
▁Kingdom	-10175
COM	-10176
java	-10177
▁tur	-10178
▁challenging	-10179
/')	-10180
[:]	-10181
brid	-10182
quiring	-10183
▁Holy	-10184
▁scholar	-10185
igin	-10186
▁tight	-10187
Sequence	-10188
▁independence	-10189
▁Impro	-10190
airy	-10191
compan	-10192
▁asking	-10193
▁rivers	-10194
▁Num	-10195
▁cookie	-10196
▁organs	-10197
▁offering	-10198
▁drought	-10199
%)	-10200
▁crypt	-10201
▁slice	-10202
without	-10203
▁undert	-10204
▁POINTER	-10205
▁proto	-10206
▁realize	-10207
▁react	-10208
console	-10209
versions	-10210
▁upload	-10211
▁doi	-10212
▁tut	-10213
▁miss	-10214
itance	-10215
Optional	-10216
▁earthqu	-10217
ITS	-10218
▁IOError	-10219
▁fault	-10220
ventory	-10221
▁burning	-10222
▁sending	-10223
▁loved	-10224
atted	-10225
Show	-10226
▁wrapper	-10227
▁Ther	-10228
LIN	-10229
▁indicating	-10230
▁pd	-10231
▁careful	-10232
mu	-10233
▁dealing	-10234
▁measurements	-10235
▁islands	-10236
Could	-10237
:-	-10238
hem	-10239
igan	-10240
azine	-10241
▁neutron	-10242
▁marks	-10243
ixels	-10244
raham	-10245
▁expressions	-10246
▁spon	-10247
▁metric	-10248
▁Zealand	-10249
▁dollars	-10250
▁Sat	-10251
▁boy	-10252
▁victims	-10253
▁mouse	-10254
special	-10255
▁frozen	-10256
▁widespread	-10257
pts	-10258
Attr	-10259
▁damaged	-10260
▁libraries	-10261
lored	-10262
locity	-10263
▁relief	-10264
▁husband	-10265
▁employed	-10266
▁interview	-10267
holders	-10268
GRO	-10269
Like	-10270
utive	-10271
Schema	-10272
▁merely	-10273
▁servers	-10274
▁tip	-10275
▁rice	-10276
▁validation	-10277
▁hop	-10278
umbnail	-10279
aver	-10280
▁quantity	-10281
▁hex	-10282
▁requirement	-10283
abil	-10284
Configuration	-10285
gar	-10286
▁gate	-10287
NC	-10288
▁▁▁▁▁▁▁▁▁	-10289
▁principal	-10290
▁removal	-10291
▁regardless	-10292
▁rocks	-10293
▁worship	-10294
▁Resources	-10295
▁preparation	-10296
▁trap	-10297
▁van	-10298
coin	-10299
rive	-10300
oices	-10301
▁reduces	-10302
prot	-10303
ensus	-10304
▁Access	-10305
▁fourth	-10306
▁opposed	-10307
▁moisture	-10308
▁rig	-10309
▁Liter	-10310
matches	-10311
▁integration	-10312
Pat	-10313
iodiversity	-10314
▁proportion	-10315
LIB	-10316
ryption	-10317
baz	-10318
▁Es	-10319
ensure	-10320
▁Early	-10321
▁Simple	-10322
▁fragment	-10323
executable	-10324
pure	-10325
▁Rock	-10326
making	-10327
TF	-10328
▁pursu	-10329
rance	-10330
▁Quest	-10331
▁substances	-10332
▁Authors	-10333
refresh	-10334
▁constantly	-10335
▁Na	-10336
▁stopped	-10337
▁ownership	-10338
bes	-10339
imm	-10340
stim	-10341
▁payload	-10342
CUM	-10343
▁OUT	-10344
▁reform	-10345
▁intent	-10346
oup	-10347
▁Age	-10348
▁rever	-10349
▁usual	-10350
▁poison	-10351
MI	-10352
▁Martin	-10353
▁spectr	-10354
crit	-10355
wing	-10356
▁dense	-10357
▁mining	-10358
▁Finally	-10359
placeholder	-10360
kl	-10361
')[	-10362
▁ment	-10363
▁fp	-10364
▁Action	-10365
Before	-10366
▁Gl	-10367
▁counsel	-10368
▁XXX	-10369
▁hur	-10370
▁fatal	-10371
▁replic	-10372
▁conversation	-10373
▁males	-10374
▁authentication	-10375
vlan	-10376
front	-10377
▁repo	-10378
omatic	-10379
▁Indians	-10380
▁Family	-10381
▁Atlantic	-10382
▁Scot	-10383
▁Rom	-10384
▁industries	-10385
processor	-10386
▁meal	-10387
▁codes	-10388
Row	-10389
▁resid	-10390
▁legisl	-10391
integr	-10392
Cor	-10393
ostic	-10394
STATUS	-10395
cyclop	-10396
▁markets	-10397
▁bond	-10398
▁boys	-10399
idential	-10400
▁Server	-10401
requires	-10402
("-	-10403
staff	-10404
▁crack	-10405
▁artist	-10406
▁HttpResponse	-10407
gressive	-10408
edu	-10409
▁defect	-10410
▁glucose	-10411
heet	-10412
▁Facebook	-10413
▁phenomenon	-10414
▁exclude	-10415
cam	-10416
Clean	-10417
party	-10418
ruit	-10419
older	-10420
Byte	-10421
▁decay	-10422
▁adequate	-10423
▁District	-10424
▁lung	-10425
monitor	-10426
▁surfaces	-10427
▁calculated	-10428
lists	-10429
▁universal	-10430
Exist	-10431
onymous	-10432
▁females	-10433
NET	-10434
▁controvers	-10435
ova	-10436
jobs	-10437
▁Sometimes	-10438
jo	-10439
}),	-10440
rooms	-10441
▁dynam	-10442
▁delivered	-10443
▁pregnant	-10444
▁historic	-10445
▁Eastern	-10446
flavor	-10447
▁Standard	-10448
▁dst	-10449
cod	-10450
inn	-10451
▁designs	-10452
▁defense	-10453
▁Low	-10454
▁spectrum	-10455
deprecated	-10456
▁removing	-10457
alter	-10458
isdir	-10459
Nodes	-10460
▁recommendations	-10461
Style	-10462
precision	-10463
▁favorite	-10464
updates	-10465
HD	-10466
eled	-10467
▁nervous	-10468
itamin	-10469
Don	-10470
▁Ho	-10471
▁artists	-10472
▁bigger	-10473
▁dependencies	-10474
▁orders	-10475
ocus	-10476
▁guidance	-10477
▁/>	-10478
getitem	-10479
▁threading	-10480
sin	-10481
)-	-10482
OSS	-10483
neigh	-10484
▁shouldn	-10485
▁na	-10486
ruption	-10487
irections	-10488
▁vertical	-10489
dh	-10490
="%	-10491
▁banks	-10492
▁roughly	-10493
▁Force	-10494
▁seeking	-10495
letter	-10496
▁essentially	-10497
uh	-10498
bre	-10499
▁escap	-10500
▁abnormal	-10501
middleware	-10502
▁encoded	-10503
▁criminal	-10504
▁Effect	-10505
▁interpretation	-10506
('_	-10507
▁Cast	-10508
ICAL	-10509
MAIN	-10510
Almost	-10511
▁tons	-10512
UBLE	-10513
▁sem	-10514
▁Element	-10515
▁facing	-10516
urations	-10517
▁displ	-10518
▁drain	-10519
▁finds	-10520
▁claimed	-10521
▁officers	-10522
▁beings	-10523
▁experimental	-10524
Positive	-10525
▁paragraph	-10526
ierarchy	-10527
▁visited	-10528
mons	-10529
▁significance	-10530
▁Naz	-10531
▁Dele	-10532
traceback	-10533
EE	-10534
▁fed	-10535
demic	-10536
▁tall	-10537
networks	-10538
▁delta	-10539
'--	-10540
ysql	-10541
▁apps	-10542
▁wast	-10543
▁sales	-10544
▁volcan	-10545
▁announced	-10546
xs	-10547
▁considering	-10548
bohyd	-10549
culate	-10550
ura	-10551
istical	-10552
▁Agency	-10553
combin	-10554
▁Korea	-10555
vard	-10556
isfile	-10557
▁ingredients	-10558
▁pkg	-10559
(_('	-10560
▁babies	-10561
credentials	-10562
edges	-10563
▁hardware	-10564
▁fairly	-10565
▁sought	-10566
▁defines	-10567
Email	-10568
▁citizen	-10569
▁outbreak	-10570
Liter	-10571
ysical	-10572
▁depos	-10573
▁identical	-10574
▁initially	-10575
▁assignment	-10576
ertion	-10577
▁RuntimeError	-10578
▁cfg	-10579
omething	-10580
▁currency	-10581
▁SIGN	-10582
tv	-10583
deep	-10584
iary	-10585
training	-10586
▁writers	-10587
nova	-10588
▁Hall	-10589
semble	-10590
▁logical	-10591
▁PM	-10592
STATE	-10593
▁rarely	-10594
▁thanks	-10595
▁archive	-10596
▁slave	-10597
▁engaged	-10598
▁heating	-10599
▁carrying	-10600
geom	-10601
verb	-10602
▁knowing	-10603
▁utility	-10604
John	-10605
▁remin	-10606
▁bringing	-10607
DAT	-10608
ella	-10609
Builder	-10610
initializer	-10611
▁rh	-10612
Normal	-10613
Channel	-10614
contact	-10615
▁COPYRIGHT	-10616
Hello	-10617
▁seemed	-10618
▁Desc	-10619
▁arbit	-10620
ammatory	-10621
▁fu	-10622
▁pounds	-10623
formance	-10624
commod	-10625
▁frag	-10626
thritis	-10627
▁hence	-10628
▁beauty	-10629
▁Ur	-10630
heimer	-10631
▁galax	-10632
requests	-10633
▁planned	-10634
Middleware	-10635
ima	-10636
atively	-10637
claimer	-10638
▁fellow	-10639
PASS	-10640
atar	-10641
▁dump	-10642
PIPE	-10643
▁serves	-10644
acle	-10645
logs	-10646
otherapy	-10647
VM	-10648
▁extensions	-10649
▁spin	-10650
▁falls	-10651
▁mathematics	-10652
▁ndarray	-10653
PDF	-10654
holds	-10655
▁archae	-10656
▁identification	-10657
▁proof	-10658
▁viruses	-10659
▁weapons	-10660
▁incred	-10661
▁Invalid	-10662
▁theories	-10663
Obj	-10664
Cannot	-10665
▁Follow	-10666
▁flavor	-10667
avery	-10668
Foo	-10669
gui	-10670
eting	-10671
▁reporting	-10672
▁syntax	-10673
▁renewable	-10674
rides	-10675
attach	-10676
▁candidate	-10677
▁logger	-10678
utc	-10679
esides	-10680
▁horses	-10681
implement	-10682
:",	-10683
adder	-10684
▁aband	-10685
scalar	-10686
▁Asian	-10687
▁Oxford	-10688
ifference	-10689
▁Place	-10690
question	-10691
▁contemporary	-10692
▁compens	-10693
▁tube	-10694
notify	-10695
▁teams	-10696
definition	-10697
cid	-10698
obs	-10699
asket	-10700
▁equally	-10701
▁examination	-10702
▁theore	-10703
amine	-10704
▁temple	-10705
▁observation	-10706
▁Iraq	-10707
PEC	-10708
▁io	-10709
plier	-10710
▁gro	-10711
WIT	-10712
▁chest	-10713
selector	-10714
▁implications	-10715
gateway	-10716
▁incorrect	-10717
[(	-10718
ordering	-10719
hd	-10720
▁da	-10721
About	-10722
Basic	-10723
retry	-10724
▁Policy	-10725
uris	-10726
dialog	-10727
▁towns	-10728
/"	-10729
vo	-10730
▁wa	-10731
PACK	-10732
Today	-10733
▁pharm	-10734
▁spatial	-10735
▁vib	-10736
▁Nut	-10737
TE	-10738
cpp	-10739
oured	-10740
associ	-10741
uffle	-10742
▁cash	-10743
padding	-10744
▁Mos	-10745
Click	-10746
▁▁▁▁▁▁▁	-10747
DefaultDeleter	-10748
▁yes	-10749
disabled	-10750
▁isolated	-10751
▁edit	-10752
▁uniform	-10753
lon	-10754
follow	-10755
findall	-10756
Var	-10757
▁providers	-10758
translation	-10759
▁visitors	-10760
▁preventing	-10761
▁videos	-10762
BR	-10763
Url	-10764
Contains	-10765
predictions	-10766
▁AT	-10767
phabet	-10768
▁identifying	-10769
▁Figure	-10770
aware	-10771
▁disaster	-10772
▁Hill	-10773
comfort	-10774
▁repeat	-10775
▁amazing	-10776
must	-10777
▁parsing	-10778
▁Administration	-10779
▁aims	-10780
▁clar	-10781
oute	-10782
Serializer	-10783
ji	-10784
▁Rest	-10785
UST	-10786
CODE	-10787
blob	-10788
▁hack	-10789
▁Columbia	-10790
pa	-10791
Storage	-10792
▁plenty	-10793
warded	-10794
▁mineral	-10795
colors	-10796
▁biology	-10797
ARB	-10798
▁lie	-10799
▁defend	-10800
bling	-10801
▁nitrogen	-10802
("--	-10803
▁gift	-10804
backup	-10805
.+	-10806
lst	-10807
StringIO	-10808
▁Flo	-10809
▁saving	-10810
positive	-10811
▁Local	-10812
▁informed	-10813
▁revision	-10814
▁proc	-10815
▁Coast	-10816
▁satellite	-10817
▁lit	-10818
otted	-10819
▁EU	-10820
Then	-10821
inks	-10822
▁Cloud	-10823
amins	-10824
▁Message	-10825
'+	-10826
WOR	-10827
▁combat	-10828
▁Moreover	-10829
▁television	-10830
relations	-10831
▁clothing	-10832
itual	-10833
letes	-10834
▁indo	-10835
▁Content	-10836
▁preferred	-10837
crypt	-10838
serve	-10839
▁blind	-10840
▁deeper	-10841
▁payment	-10842
▁abs	-10843
amber	-10844
▁sessions	-10845
Cond	-10846
Rule	-10847
▁Director	-10848
▁listening	-10849
▁considerable	-10850
▁Christmas	-10851
stdin	-10852
utron	-10853
▁desert	-10854
failUnless	-10855
▁eliminate	-10856
cks	-10857
▁evil	-10858
▁collaboration	-10859
alls	-10860
▁mild	-10861
represent	-10862
REQUEST	-10863
▁observe	-10864
efficient	-10865
cn	-10866
arest	-10867
People	-10868
▁irrit	-10869
▁imagine	-10870
▁()	-10871
▁Dar	-10872
▁Who	-10873
▁shoot	-10874
Convert	-10875
▁lake	-10876
▁Amazon	-10877
▁tuples	-10878
threshold	-10879
Handle	-10880
▁movie	-10881
▁cleaning	-10882
parents	-10883
▁structural	-10884
▁curve	-10885
▁Ep	-10886
LATIN	-10887
▁styles	-10888
}\	-10889
iser	-10890
▁Bab	-10891
timer	-10892
generic	-10893
▁tempor	-10894
▁advantages	-10895
▁beta	-10896
▁quiet	-10897
geo	-10898
pur	-10899
itarian	-10900
▁broadcast	-10901
pus	-10902
xff	-10903
▁compound	-10904
▁Bre	-10905
concat	-10906
LIST	-10907
▁twisted	-10908
roat	-10909
▁pas	-10910
▁subnet	-10911
▁definitions	-10912
STRING	-10913
submit	-10914
▁analog	-10915
▁gradually	-10916
clf	-10917
▁Account	-10918
nav	-10919
queryset	-10920
▁absence	-10921
▁clients	-10922
▁Response	-10923
▁vals	-10924
▁guard	-10925
▁unusual	-10926
▁equation	-10927
▁stronger	-10928
▁Param	-10929
▁edition	-10930
protected	-10931
!"	-10932
secure	-10933
shutil	-10934
verter	-10935
▁threats	-10936
▁endpoint	-10937
▁boundaries	-10938
ented	-10939
AMP	-10940
locator	-10941
pipeline	-10942
▁happening	-10943
▁dependency	-10944
emit	-10945
tems	-10946
pairs	-10947
▁View	-10948
▁alive	-10949
▁Dictionary	-10950
▁vocabulary	-10951
rises	-10952
▁dose	-10953
iology	-10954
▁excessive	-10955
▁influenced	-10956
elled	-10957
FIEL	-10958
▁directed	-10959
prog	-10960
theless	-10961
iscal	-10962
linux	-10963
stage	-10964
▁Bill	-10965
▁Down	-10966
▁Mah	-10967
▁applies	-10968
need	-10969
▁NULL	-10970
▁flows	-10971
▁phrase	-10972
BACK	-10973
▁democracy	-10974
izon	-10975
OC	-10976
segment	-10977
exper	-10978
▁Mel	-10979
▁sklearn	-10980
▁encouraged	-10981
Am	-10982
SHA	-10983
black	-10984
▁minimal	-10985
▁mechanical	-10986
▁regulation	-10987
▁effectiveness	-10988
bles	-10989
foreign	-10990
keyword	-10991
▁Comment	-10992
▁epide	-10993
wa	-10994
exer	-10995
ventions	-10996
aggregate	-10997
diction	-10998
▁metabol	-10999
ulatory	-11000
▁rational	-11001
alchemy	-11002
Car	-11003
▁Last	-11004
▁arts	-11005
outheast	-11006
▁radical	-11007
machine	-11008
▁availability	-11009
ctest	-11010
▁Search	-11011
▁proven	-11012
▁pipe	-11013
▁Centre	-11014
Tr	-11015
▁CD	-11016
amination	-11017
▁anywhere	-11018
▁concerning	-11019
what	-11020
▁farming	-11021
▁earliest	-11022
▁surprising	-11023
▁neighborhood	-11024
+"	-11025
loper	-11026
SCH	-11027
▁Islam	-11028
▁terror	-11029
▁formats	-11030
▁breeding	-11031
ori	-11032
uum	-11033
▁tx	-11034
ometers	-11035
▁presents	-11036
▁variation	-11037
▁mile	-11038
Unable	-11039
▁annot	-11040
▁finger	-11041
▁intensity	-11042
CTYPE	-11043
itory	-11044
▁Java	-11045
Decimal	-11046
BB	-11047
▁Print	-11048
▁threshold	-11049
ARK	-11050
▁mirror	-11051
▁proved	-11052
▁Adv	-11053
▁Four	-11054
Driver	-11055
▁cooking	-11056
Root	-11057
▁bias	-11058
▁inspired	-11059
aska	-11060
▁murder	-11061
▁consumed	-11062
pow	-11063
▁mold	-11064
▁hazard	-11065
▁perm	-11066
ipt	-11067
▁Jeff	-11068
▁examined	-11069
▁difficulties	-11070
▁installation	-11071
▁floating	-11072
sensitive	-11073
▁physician	-11074
▁Furthermore	-11075
roadcast	-11076
Transform	-11077
rep	-11078
▁cv	-11079
▁overw	-11080
▁elected	-11081
ygon	-11082
▁Among	-11083
sessment	-11084
▁thir	-11085
▁Super	-11086
ani	-11087
Writer	-11088
ylvan	-11089
▁flash	-11090
)}	-11091
▁phosph	-11092
▁suite	-11093
coord	-11094
endor	-11095
onical	-11096
Provider	-11097
ulty	-11098
Under	-11099
▁addr	-11100
▁Community	-11101
▁privile	-11102
▁customer	-11103
▁Additionally	-11104
dash	-11105
ToMany	-11106
BL	-11107
▁Tom	-11108
▁bees	-11109
analysis	-11110
sert	-11111
▁flour	-11112
▁Similar	-11113
antly	-11114
SUB	-11115
CLASS	-11116
sections	-11117
▁cere	-11118
iest	-11119
sat	-11120
ouds	-11121
EA	-11122
▁snapshot	-11123
▁bot	-11124
atches	-11125
keywords	-11126
manifest	-11127
bf	-11128
▁buf	-11129
▁arrang	-11130
svn	-11131
agen	-11132
Custom	-11133
▁provision	-11134
connections	-11135
comput	-11136
sis	-11137
epoch	-11138
Title	-11139
▁laid	-11140
Extension	-11141
recur	-11142
▁Moon	-11143
▁cultiv	-11144
readline	-11145
_{	-11146
ipart	-11147
prompt	-11148
▁google	-11149
▁Despite	-11150
heel	-11151
Notes	-11152
▁capabilities	-11153
HAS	-11154
opath	-11155
▁Circ	-11156
sf	-11157
acco	-11158
ratio	-11159
▁Iran	-11160
▁illegal	-11161
▁Three	-11162
▁commission	-11163
▁Tre	-11164
▁gut	-11165
latest	-11166
▁scalar	-11167
▁Unicode	-11168
▁analyze	-11169
▁pad	-11170
▁varieties	-11171
etary	-11172
▁sport	-11173
▁Document	-11174
▁learners	-11175
usive	-11176
▁bath	-11177
TS	-11178
▁focuses	-11179
management	-11180
ati	-11181
▁Star	-11182
threads	-11183
DIRECT	-11184
slot	-11185
uling	-11186
wsgi	-11187
itals	-11188
ookie	-11189
▁cort	-11190
aneously	-11191
▁intense	-11192
▁raising	-11193
rum	-11194
▁Sar	-11195
omer	-11196
▁uuid	-11197
▁Plant	-11198
▁Indust	-11199
▁Math	-11200
▁polar	-11201
▁innovation	-11202
atched	-11203
ioxid	-11204
▁contribution	-11205
LI	-11206
assertAllEqual	-11207
px	-11208
Tim	-11209
trigger	-11210
vation	-11211
▁EVENT	-11212
▁Write	-11213
"})	-11214
effic	-11215
otton	-11216
veloper	-11217
▁treating	-11218
▁MS	-11219
diag	-11220
ometer	-11221
▁oldest	-11222
▁Sil	-11223
iture	-11224
elihood	-11225
filepath	-11226
▁healing	-11227
▁screening	-11228
Given	-11229
▁fest	-11230
sessed	-11231
encoded	-11232
coln	-11233
iana	-11234
▁enables	-11235
AttributeChecker	-11236
ucky	-11237
▁Bad	-11238
orient	-11239
▁traditions	-11240
▁holes	-11241
TA	-11242
▁layout	-11243
▁stead	-11244
estimator	-11245
perature	-11246
▁demands	-11247
.).	-11248
▁ba	-11249
▁jump	-11250
seline	-11251
Timeout	-11252
▁driven	-11253
Ret	-11254
▁accompan	-11255
▁investigation	-11256
attrib	-11257
igue	-11258
▁BSD	-11259
▁macro	-11260
learning	-11261
▁suffered	-11262
tok	-11263
icular	-11264
Ear	-11265
▁entities	-11266
▁breed	-11267
▁chlor	-11268
gorithms	-11269
supports	-11270
ropy	-11271
mul	-11272
zheimer	-11273
▁quarter	-11274
▁sitting	-11275
▁Jul	-11276
▁nice	-11277
tre	-11278
▁taxes	-11279
▁modification	-11280
trl	-11281
Shape	-11282
lices	-11283
losure	-11284
dynamic	-11285
andas	-11286
▁IV	-11287
Fields	-11288
payment	-11289
▁Christians	-11290
Width	-11291
▁Exper	-11292
▁Learn	-11293
▁Resource	-11294
▁conference	-11295
ATER	-11296
▁Though	-11297
una	-11298
mann	-11299
▁gained	-11300
strument	-11301
▁streams	-11302
Vir	-11303
ishop	-11304
▁fishing	-11305
▁slavery	-11306
even	-11307
lb	-11308
Abstract	-11309
▁ordinary	-11310
▁comfortable	-11311
Grad	-11312
▁dot	-11313
▁sale	-11314
canvas	-11315
DELETE	-11316
▁losses	-11317
compress	-11318
▁accommod	-11319
▁gramm	-11320
""",	-11321
NECT	-11322
▁ranges	-11323
▁imported	-11324
Stand	-11325
VALUE	-11326
▁span	-11327
▁scientist	-11328
▁DC	-11329
Keys	-11330
▁rose	-11331
▁Hy	-11332
Just	-11333
▁sq	-11334
Arch	-11335
▁Light	-11336
▁keeps	-11337
▁Move	-11338
packet	-11339
▁senior	-11340
orer	-11341
▁wine	-11342
▁Inf	-11343
Expected	-11344
▁ts	-11345
▁reveal	-11346
▁planets	-11347
▁Update	-11348
▁lowest	-11349
iva	-11350
gz	-11351
don	-11352
constraint	-11353
▁trig	-11354
iovascular	-11355
Where	-11356
unicip	-11357
▁heads	-11358
▁clause	-11359
alert	-11360
▁VM	-11361
ATED	-11362
▁asset	-11363
▁faces	-11364
▁platforms	-11365
ussian	-11366
▁neutral	-11367
▁decreased	-11368
▁Sto	-11369
▁flower	-11370
▁illust	-11371
▁OSError	-11372
▁unexpected	-11373
ONT	-11374
century	-11375
SERVER	-11376
▁Protection	-11377
NG	-11378
Exit	-11379
▁exhaust	-11380
Font	-11381
asets	-11382
▁timedelta	-11383
?)	-11384
▁relie	-11385
ANCE	-11386
▁faced	-11387
cher	-11388
▁amb	-11389
▁Wall	-11390
▁Parent	-11391
▁diameter	-11392
proj	-11393
▁git	-11394
▁directories	-11395
▁honey	-11396
▁Section	-11397
productive	-11398
cmp	-11399
▁Never	-11400
visor	-11401
abases	-11402
▁Swed	-11403
▁infant	-11404
▁literacy	-11405
pf	-11406
▁'"	-11407
arters	-11408
▁grows	-11409
▁Clean	-11410
▁ran	-11411
▁copper	-11412
▁characterized	-11413
▁intest	-11414
▁racial	-11415
▁computing	-11416
mg	-11417
Bit	-11418
replic	-11419
▁panels	-11420
▁elsewhere	-11421
▁bag	-11422
wt	-11423
▁consideration	-11424
allclose	-11425
roduction	-11426
Environment	-11427
▁ul	-11428
draft	-11429
abling	-11430
▁attach	-11431
▁trends	-11432
▁inhabit	-11433
▁profit	-11434
▁refuge	-11435
projects	-11436
▁equality	-11437
▁Ra	-11438
hort	-11439
▁occurring	-11440
▁performing	-11441
/{	-11442
▁unw	-11443
white	-11444
▁fraction	-11445
lyph	-11446
bias	-11447
▁permit	-11448
▁mortality	-11449
▁experiencing	-11450
▁viewed	-11451
▁combine	-11452
▁scholars	-11453
▁slaves	-11454
construct	-11455
▁expectations	-11456
ila	-11457
▁pipeline	-11458
▁paint	-11459
▁mixture	-11460
▁seq	-11461
cross	-11462
▁'=',	-11463
Global	-11464
▁fer	-11465
▁ending	-11466
▁nic	-11467
▁templates	-11468
affe	-11469
▁acute	-11470
▁respiratory	-11471
▁stability	-11472
third	-11473
▁Temple	-11474
▁restored	-11475
sr	-11476
Public	-11477
▁paras	-11478
▁roads	-11479
▁ritual	-11480
▁absent	-11481
interfaces	-11482
helpers	-11483
numeric	-11484
▁Chapter	-11485
cury	-11486
▁atoms	-11487
▁haven	-11488
▁wisdom	-11489
▁settlement	-11490
rele	-11491
▁biom	-11492
Indent	-11493
▁scipy	-11494
scripts	-11495
▁mg	-11496
resolve	-11497
▁complications	-11498
/.	-11499
▁brush	-11500
▁lymph	-11501
Role	-11502
atting	-11503
▁counts	-11504
▁emphasis	-11505
▁reaching	-11506
▁sedim	-11507
▁bare	-11508
▁owned	-11509
prepare	-11510
▁managing	-11511
rous	-11512
▁peoples	-11513
until	-11514
▁concluded	-11515
▁reasonable	-11516
prox	-11517
▁frappe	-11518
▁pointed	-11519
stic	-11520
▁Support	-11521
anger	-11522
deploy	-11523
▁tropical	-11524
tion	-11525
▁"\\	-11526
coeff	-11527
reets	-11528
ocolate	-11529
▁Ven	-11530
charset	-11531
}'	-11532
ylvania	-11533
variance	-11534
▁IPv	-11535
▁Imp	-11536
Selection	-11537
wb	-11538
Suite	-11539
▁worst	-11540
HA	-11541
ARD	-11542
rog	-11543
▁evolved	-11544
▁superior	-11545
▁alarm	-11546
▁catalog	-11547
TT	-11548
▁Ba	-11549
▁Systems	-11550
▁enorm	-11551
▁heavily	-11552
▁stations	-11553
▁prominent	-11554
CUR	-11555
▁mine	-11556
HS	-11557
▁Acc	-11558
scores	-11559
▁Without	-11560
▁transformation	-11561
▁abilities	-11562
▁Task	-11563
▁CE	-11564
')))	-11565
▁measuring	-11566
▁contributed	-11567
▁turb	-11568
▁iterable	-11569
▁functionality	-11570
posing	-11571
▁imaging	-11572
irms	-11573
ults	-11574
▁Kar	-11575
▁dys	-11576
abeth	-11577
birth	-11578
▁applying	-11579
▁carbohyd	-11580
oly	-11581
Literal	-11582
dictionary	-11583
▁Tele	-11584
builtin	-11585
addresses	-11586
|\	-11587
requirements	-11588
▁disabilities	-11589
▁")	-11590
▁Je	-11591
▁trave	-11592
▁mountains	-11593
▁compatibility	-11594
▁embry	-11595
Flag	-11596
▁Stop	-11597
▁trick	-11598
Unicode	-11599
▁tolerance	-11600
▁Sand	-11601
ni	-11602
Extract	-11603
▁forming	-11604
locations	-11605
▁acquired	-11606
moves	-11607
develop	-11608
GER	-11609
onto	-11610
▁acres	-11611
▁sunlight	-11612
PES	-11613
flu	-11614
optim	-11615
▁torn	-11616
▁Exec	-11617
▁threads	-11618
▁Fund	-11619
tl	-11620
unlink	-11621
▁overcome	-11622
circ	-11623
▁boto	-11624
Comment	-11625
.),	-11626
hea	-11627
▁objectives	-11628
▁repository	-11629
adel	-11630
pathy	-11631
▁passes	-11632
installed	-11633
ansas	-11634
▁hormone	-11635
cipe	-11636
Register	-11637
ocker	-11638
lu	-11639
▁Cross	-11640
▁Parse	-11641
▁disturb	-11642
▁Alzheimer	-11643
}"	-11644
▁rc	-11645
▁aged	-11646
ressive	-11647
Di	-11648
▁Bal	-11649
▁Conservation	-11650
endment	-11651
ashed	-11652
▁pestic	-11653
▁addressed	-11654
▁Sir	-11655
metry	-11656
reply	-11657
▁Analysis	-11658
▁musical	-11659
authors	-11660
▁fatty	-11661
UTF	-11662
▁laser	-11663
Elements	-11664
ritional	-11665
dal	-11666
utely	-11667
▁lights	-11668
located	-11669
IBLE	-11670
ieval	-11671
Yes	-11672
Volume	-11673
rolled	-11674
▁Supreme	-11675
▁dietary	-11676
phase	-11677
▁Hebrew	-11678
▁shorter	-11679
Rad	-11680
▁Card	-11681
▁giant	-11682
geometry	-11683
▁uncertain	-11684
▁commitment	-11685
PREFIX	-11686
inating	-11687
▁sentences	-11688
▁Unfortunately	-11689
wave	-11690
Space	-11691
▁Avoid	-11692
▁flexible	-11693
decimal	-11694
▁indigenous	-11695
SUP	-11696
▁cattle	-11697
▁predicted	-11698
▁antibiotics	-11699
syn	-11700
Begin	-11701
nl	-11702
duced	-11703
▁Ly	-11704
rane	-11705
Params	-11706
clusions	-11707
lights	-11708
▁loading	-11709
dk	-11710
sizes	-11711
Geometry	-11712
▁handled	-11713
calc	-11714
Allow	-11715
▁calendar	-11716
▁covering	-11717
▁descriptor	-11718
GROUP	-11719
parison	-11720
▁insight	-11721
▁elem	-11722
▁mosquit	-11723
▁moderate	-11724
▁autism	-11725
ulus	-11726
▁safely	-11727
▁Sing	-11728
earing	-11729
▁argue	-11730
▁grain	-11731
▁configured	-11732
▁classification	-11733
tts	-11734
▁webs	-11735
ometric	-11736
cha	-11737
ogenic	-11738
▁elder	-11739
mia	-11740
coef	-11741
▁Tree	-11742
▁victim	-11743
▁descend	-11744
▁simult	-11745
▁SU	-11746
▁perception	-11747
▁Linux	-11748
▁Cambridge	-11749
gamma	-11750
realm	-11751
digest	-11752
senger	-11753
General	-11754
▁emp	-11755
▁falling	-11756
▁communications	-11757
']]	-11758
uom	-11759
▁duty	-11760
▁Johnson	-11761
plotlib	-11762
▁dropped	-11763
raps	-11764
IBUTORS	-11765
asant	-11766
latex	-11767
runtime	-11768
▁Online	-11769
timezone	-11770
▁describing	-11771
▁cand	-11772
▁Pot	-11773
▁charged	-11774
▁unf	-11775
▁Division	-11776
▁girl	-11777
destroy	-11778
Pop	-11779
▁''.	-11780
▁brand	-11781
▁regex	-11782
▁metrics	-11783
law	-11784
Operand	-11785
▁introduce	-11786
along	-11787
▁Battle	-11788
Total	-11789
▁fet	-11790
START	-11791
▁suscept	-11792
written	-11793
▁Safety	-11794
outube	-11795
▁Select	-11796
oa	-11797
▁Pur	-11798
▁aer	-11799
TEMPL	-11800
▁dissol	-11801
▁pi	-11802
aterials	-11803
▁grammar	-11804
Generate	-11805
▁nested	-11806
▁engineers	-11807
▁functioning	-11808
▁Heart	-11809
▁rhyth	-11810
Operator	-11811
▁LE	-11812
bean	-11813
rams	-11814
▁Help	-11815
confirm	-11816
MODE	-11817
▁prox	-11818
itches	-11819
readonly	-11820
▁thereby	-11821
▁overwhel	-11822
Generator	-11823
uv	-11824
defer	-11825
▁silver	-11826
▁protecting	-11827
▁Survey	-11828
▁differently	-11829
▁programme	-11830
▁"")	-11831
apeut	-11832
coords	-11833
▁COVID	-11834
who	-11835
▁fires	-11836
▁Reading	-11837
assertIsInstance	-11838
')(	-11839
▁incident	-11840
smart	-11841
▁cyber	-11842
POS	-11843
▁plt	-11844
apters	-11845
▁Database	-11846
▁concentrations	-11847
erk	-11848
imax	-11849
▁Click	-11850
▁generic	-11851
assertAllClose	-11852
avar	-11853
▁disclaimer	-11854
chars	-11855
▁Corpor	-11856
▁regarded	-11857
▁credentials	-11858
vc	-11859
Used	-11860
▁meals	-11861
made	-11862
nsylvania	-11863
▁magnitude	-11864
▁harder	-11865
▁Prevention	-11866
▁households	-11867
RET	-11868
Single	-11869
Redirect	-11870
qa	-11871
strong	-11872
ificates	-11873
▁Michigan	-11874
▁nutrient	-11875
▁Comple	-11876
▁advent	-11877
INCLUDING	-11878
_='	-11879
acks	-11880
ertificate	-11881
▁innovative	-11882
▁constraints	-11883
▁Ham	-11884
▁sharp	-11885
angered	-11886
ador	-11887
background	-11888
▁Right	-11889
▁Bit	-11890
▁sensors	-11891
▁lens	-11892
floating	-11893
cyclopedia	-11894
▁Unit	-11895
▁Engineering	-11896
▁lar	-11897
▁cooling	-11898
▁compiler	-11899
▁indirect	-11900
GO	-11901
▁fold	-11902
▁ha	-11903
obar	-11904
icMock	-11905
ILD	-11906
Lexer	-11907
▁sensitivity	-11908
$(	-11909
RR	-11910
▁drivers	-11911
venio	-11912
▁affecting	-11913
lr	-11914
symbols	-11915
Directory	-11916
▁Consider	-11917
▁interior	-11918
isa	-11919
iral	-11920
▁tick	-11921
▁ethical	-11922
▁preserved	-11923
uten	-11924
▁mathematical	-11925
▁cra	-11926
▁uri	-11927
necess	-11928
▁PROVID	-11929
▁thermal	-11930
AlmostEqual	-11931
▁educators	-11932
▁Edward	-11933
▁mothers	-11934
oga	-11935
live	-11936
▁Client	-11937
fixtures	-11938
km	-11939
▁Ken	-11940
likely	-11941
Database	-11942
▁compatible	-11943
▁AnsibleModule	-11944
imental	-11945
▁researcher	-11946
neys	-11947
▁dtypes	-11948
▁flying	-11949
fragment	-11950
cin	-11951
cue	-11952
saved	-11953
Stat	-11954
ndim	-11955
▁Lincoln	-11956
▁killing	-11957
.],	-11958
ndarray	-11959
bum	-11960
▁builder	-11961
▁vim	-11962
clock	-11963
▁seat	-11964
▁guest	-11965
▁antioxid	-11966
▁controller	-11967
▁avo	-11968
▁chemistry	-11969
both	-11970
ordered	-11971
▁Young	-11972
▁tearDown	-11973
publish	-11974
schedule	-11975
▁binding	-11976
▁Minister	-11977
odo	-11978
▁'*	-11979
High	-11980
▁zones	-11981
▁eval	-11982
▁strain	-11983
El	-11984
ICES	-11985
▁tal	-11986
▁tribes	-11987
opher	-11988
▁Polit	-11989
BA	-11990
▁Next	-11991
evaluate	-11992
▁Arctic	-11993
▁lang	-11994
("<	-11995
outing	-11996
▁comprom	-11997
▁improvements	-11998
Gu	-11999
cou	-12000
▁adapted	-12001
idal	-12002
▁breaks	-12003
▁Series	-12004
XXXX	-12005
▁initiative	-12006
▁Way	-12007
friendly	-12008
▁administer	-12009
xis	-12010
▁scenario	-12011
APP	-12012
▁mi	-12013
Cell	-12014
finished	-12015
Len	-12016
started	-12017
spl	-12018
▁WHERE	-12019
UID	-12020
Second	-12021
pection	-12022
▁directions	-12023
ogs	-12024
today	-12025
▁recording	-12026
each	-12027
▁fract	-12028
▁locale	-12029
▁friendly	-12030
dv	-12031
psy	-12032
NotExist	-12033
isons	-12034
loading	-12035
▁province	-12036
hus	-12037
▁DRAW	-12038
▁preced	-12039
▁manufacturers	-12040
izabeth	-12041
▁iterator	-12042
▁lifetime	-12043
▁opposition	-12044
▁determining	-12045
▁asc	-12046
▁reput	-12047
▁supplements	-12048
Changed	-12049
▁Georgia	-12050
▁contributions	-12051
checker	-12052
▁DAMAGES	-12053
▁marketing	-12054
▁ps	-12055
Google	-12056
pickle	-12057
ToManyField	-12058
Usage	-12059
▁Mean	-12060
▁appl	-12061
▁minim	-12062
▁ecological	-12063
aping	-12064
apor	-12065
normalize	-12066
LP	-12067
stein	-12068
minute	-12069
▁ensuring	-12070
▁portions	-12071
▁modifiers	-12072
▁CONTRIBUTORS	-12073
[]	-12074
digits	-12075
Enabled	-12076
ertools	-12077
▁Custom	-12078
▁exploration	-12079
kb	-12080
Tab	-12081
larg	-12082
%,	-12083
osa	-12084
"]["	-12085
▁Road	-12086
▁stake	-12087
ocal	-12088
▁Dutch	-12089
▁acceptable	-12090
)**	-12091
Save	-12092
cells	-12093
▁beat	-12094
Offset	-12095
owns	-12096
rstrip	-12097
▁evaluated	-12098
▁retrieve	-12099
▁pid	-12100
▁digits	-12101
okes	-12102
metaclass	-12103
variant	-12104
▁translated	-12105
▁characteristic	-12106
===	-12107
▁labour	-12108
▁vitamins	-12109
mond	-12110
▁entering	-12111
▁narrative	-12112
▁||	-12113
▁Blue	-12114
BI	-12115
▁Hor	-12116
copyright	-12117
▁coordinates	-12118
Hook	-12119
▁charset	-12120
▁acknowled	-12121
▁GE	-12122
▁NOTE	-12123
▁gases	-12124
▁Example	-12125
▁vaccines	-12126
achuse	-12127
▁Microsoft	-12128
▁inventory	-12129
▁Rh	-12130
ymes	-12131
▁radius	-12132
aya	-12133
▁MIT	-12134
▁Ident	-12135
▁correspond	-12136
chemical	-12137
▁associate	-12138
▁protective	-12139
▁DI	-12140
▁ft	-12141
does	-12142
hooks	-12143
▁Little	-12144
▁behavioral	-12145
▁candidates	-12146
▁coordinate	-12147
rus	-12148
working	-12149
▁buried	-12150
▁trauma	-12151
eor	-12152
major	-12153
▁Otherwise	-12154
sex	-12155
▁cros	-12156
▁Kenn	-12157
▁cached	-12158
▁astronom	-12159
energy	-12160
▁believes	-12161
collections	-12162
too	-12163
NULL	-12164
▁tong	-12165
candid	-12166
▁argued	-12167
acl	-12168
review	-12169
erc	-12170
city	-12171
▁Net	-12172
▁wheat	-12173
▁exciting	-12174
▁compression	-12175
▁transmitted	-12176
odes	-12177
▁orange	-12178
▁Integer	-12179
Long	-12180
▁serv	-12181
allest	-12182
▁surge	-12183
ernet	-12184
urches	-12185
▁farms	-12186
▁Product	-12187
CI	-12188
▁Lay	-12189
achusetts	-12190
operations	-12191
zA	-12192
Free	-12193
▁Los	-12194
cussion	-12195
>%	-12196
ategorical	-12197
asts	-12198
exact	-12199
▁Returns	-12200
information	-12201
▁Conference	-12202
▁threatened	-12203
lymp	-12204
vere	-12205
▁variations	-12206
▁vegetation	-12207
spect	-12208
History	-12209
Api	-12210
▁bacterial	-12211
▁disability	-12212
:')	-12213
ETHER	-12214
▁reward	-12215
▁interfaces	-12216
uptools	-12217
ATOR	-12218
▁wouldn	-12219
▁Ari	-12220
Accessor	-12221
ographical	-12222
▁'\\	-12223
radius	-12224
DEX	-12225
▁IT	-12226
ifice	-12227
▁precise	-12228
▁Contin	-12229
▁humanity	-12230
NAM	-12231
SCHEM	-12232
▁Christianity	-12233
RED	-12234
▁Play	-12235
teenth	-12236
▁Grand	-12237
▁Queen	-12238
▁embedded	-12239
border	-12240
▁creatures	-12241
▁physically	-12242
'',	-12243
Will	-12244
clause	-12245
▁aimed	-12246
Exp	-12247
▁crew	-12248
Failure	-12249
oli	-12250
▁strike	-12251
▁chances	-12252
asma	-12253
▁dance	-12254
▁translate	-12255
▁biodiversity	-12256
ulpt	-12257
▁pod	-12258
▁emotion	-12259
▁Hospital	-12260
generation	-12261
ugs	-12262
▁Ve	-12263
sale	-12264
Items	-12265
▁traits	-12266
▁DRAWINGS	-12267
Lock	-12268
hu	-12269
▁boat	-12270
bottom	-12271
▁sust	-12272
▁spoken	-12273
▁_,	-12274
▁irr	-12275
▁wonderful	-12276
▁exped	-12277
edDict	-12278
▁Books	-12279
▁generating	-12280
??	-12281
CEPT	-12282
ceeds	-12283
roles	-12284
▁reproduce	-12285
▁posts	-12286
▁Pennsylvania	-12287
▁themes	-12288
▁collective	-12289
▁containers	-12290
cour	-12291
gyp	-12292
▁Ohio	-12293
tector	-12294
▁couldn	-12295
▁myself	-12296
.:	-12297
burn	-12298
worth	-12299
▁executive	-12300
▁particle	-12301
Mar	-12302
stable	-12303
igs	-12304
▁EN	-12305
quot	-12306
Right	-12307
▁timezone	-12308
,\	-12309
▁"{	-12310
Skip	-12311
food	-12312
sender	-12313
▁committee	-12314
▁Mes	-12315
▁Turn	-12316
▁documented	-12317
utor	-12318
▁Lee	-12319
▁Issue	-12320
▁intention	-12321
direction	-12322
specs	-12323
Enter	-12324
▁hunting	-12325
▁Protocol	-12326
▁HO	-12327
▁PDF	-12328
▁inn	-12329
▁Gulf	-12330
▁DEFAULT	-12331
▁engaging	-12332
Named	-12333
ateral	-12334
▁obst	-12335
Follow	-12336
▁Neuro	-12337
▁numer	-12338
▁prime	-12339
▁emerging	-12340
▁Francisco	-12341
▁INCLUDING	-12342
▁restricted	-12343
▁readonly	-12344
▁technological	-12345
elve	-12346
▁existed	-12347
▁personality	-12348
▁"{{	-12349
AAAA	-12350
priv	-12351
▁Arg	-12352
Enable	-12353
angular	-12354
▁inherited	-12355
dp	-12356
COUN	-12357
▁fan	-12358
PARAM	-12359
await	-12360
advant	-12361
ymptoms	-12362
DoesNotExist	-12363
Active	-12364
▁predictions	-12365
▁bene	-12366
requency	-12367
tit	-12368
▁cow	-12369
▁legacy	-12370
▁'+	-12371
creen	-12372
URN	-12373
berry	-12374
cycle	-12375
▁Script	-12376
Ev	-12377
eenth	-12378
▁shaped	-12379
▁Laboratory	-12380
▁AL	-12381
▁grains	-12382
▁appointed	-12383
ISING	-12384
attempt	-12385
▁sail	-12386
frames	-12387
▁streets	-12388
ortheast	-12389
▁mess	-12390
▁promise	-12391
CM	-12392
▁Head	-12393
▁Integr	-12394
▁employee	-12395
▁addiction	-12396
▁establishment	-12397
▁anger	-12398
▁parad	-12399
zyme	-12400
DOMAIN	-12401
▁disrupt	-12402
▁Scotland	-12403
▁heritage	-12404
wers	-12405
▁Pak	-12406
usalem	-12407
▁loose	-12408
▁gradient	-12409
▁instruct	-12410
kill	-12411
rypted	-12412
▁hypothesis	-12413
bg	-12414
▁"+	-12415
▁versionadded	-12416
ancer	-12417
▁conclude	-12418
WH	-12419
▁Mil	-12420
aints	-12421
▁ease	-12422
▁abort	-12423
▁sad	-12424
▁officer	-12425
▁continuing	-12426
▁IF	-12427
▁targeted	-12428
({"	-12429
)||	-12430
KEN	-12431
▁ger	-12432
large	-12433
▁SHALL	-12434
▁Lesser	-12435
▁Spirit	-12436
▁evening	-12437
▁quantum	-12438
▁specim	-12439
AI	-12440
▁mic	-12441
jacent	-12442
getvalue	-12443
bid	-12444
lif	-12445
▁Hu	-12446
▁perceived	-12447
▁Basic	-12448
▁grounds	-12449
isc	-12450
▁Ask	-12451
▁cycles	-12452
▁fisher	-12453
▁wrapped	-12454
▁fats	-12455
figure	-12456
▁Struct	-12457
argo	-12458
▁lip	-12459
Sample	-12460
▁reads	-12461
▁telling	-12462
▁habitats	-12463
zes	-12464
▁PR	-12465
▁examin	-12466
ether	-12467
▁cub	-12468
▁ports	-12469
▁heaven	-12470
▁padding	-12471
urchase	-12472
▁withdraw	-12473
"")	-12474
▁dramatic	-12475
▁definitely	-12476
GNU	-12477
fly	-12478
▁rendered	-12479
Feed	-12480
▁Solar	-12481
▁bases	-12482
catalog	-12483
▁UP	-12484
▁minds	-12485
▁balanced	-12486
nut	-12487
▁Mur	-12488
▁crash	-12489
Msg	-12490
bundle	-12491
listdir	-12492
ynomial	-12493
▁sculpt	-12494
algorithm	-12495
▁assembly	-12496
▁sha	-12497
ureau	-12498
▁wider	-12499
Success	-12500
▁losing	-12501
▁absol	-12502
▁Spring	-12503
Who	-12504
▁Justice	-12505
▁sustainability	-12506
"},	-12507
aux	-12508
▁morph	-12509
assistant	-12510
▁PROVIDED	-12511
▁investigate	-12512
▁FIX	-12513
agger	-12514
icking	-12515
repository	-12516
▁consciousness	-12517
ptic	-12518
▁beans	-12519
▁fought	-12520
▁gravity	-12521
▁ham	-12522
Render	-12523
▁tumor	-12524
▁exhibit	-12525
▁attempted	-12526
▁Lu	-12527
tras	-12528
▁Gar	-12529
wan	-12530
▁Modern	-12531
Domain	-12532
Verify	-12533
▁genome	-12534
▁newspaper	-12535
▁closing	-12536
▁Equ	-12537
slots	-12538
▁judge	-12539
([^	-12540
▁convey	-12541
▁reaches	-12542
▁OK	-12543
paren	-12544
▁Input	-12545
▁urlparse	-12546
additional	-12547
▁cardiovascular	-12548
mgr	-12549
timedelta	-12550
▁classified	-12551
sigma	-12552
▁bomb	-12553
▁delic	-12554
▁backup	-12555
▁versus	-12556
RY	-12557
[\	-12558
rece	-12559
▁planting	-12560
BOX	-12561
▁alg	-12562
▁ton	-12563
▁Digital	-12564
▁Business	-12565
Anal	-12566
borne	-12567
▁completion	-12568
'(	-12569
thes	-12570
inite	-12571
argin	-12572
othing	-12573
▁notion	-12574
▁Ped	-12575
▁bulk	-12576
manage	-12577
▁reign	-12578
▁transc	-12579
metrical	-12580
▁engines	-12581
▁Put	-12582
▁lungs	-12583
▁Albert	-12584
▁terminal	-12585
▁societies	-12586
▁complexity	-12587
WISE	-12588
urable	-12589
▁truck	-12590
average	-12591
apture	-12592
▁promoting	-12593
▁restrictions	-12594
mega	-12595
dimensional	-12596
ju	-12597
▁ru	-12598
ears	-12599
they	-12600
▁batteries	-12601
Initial	-12602
consumer	-12603
▁Massachusetts	-12604
▁begun	-12605
▁literary	-12606
▁Convention	-12607
phan	-12608
uits	-12609
▁flav	-12610
▁magic	-12611
▁acting	-12612
▁painful	-12613
▁interventions	-12614
▁Him	-12615
▁pel	-12616
▁legend	-12617
▁classical	-12618
lins	-12619
▁feels	-12620
▁argparse	-12621
▁TORT	-12622
sb	-12623
adr	-12624
etter	-12625
▁Core	-12626
▁Again	-12627
▁fuels	-12628
▁Palest	-12629
▁deeply	-12630
php	-12631
▁breaking	-12632
}',	-12633
▁Aud	-12634
▁JzKet	-12635
▁spray	-12636
▁quotes	-12637
iply	-12638
▁LIABLE	-12639
▁enormous	-12640
bounded	-12641
▁apparently	-12642
▁(_	-12643
inosaur	-12644
▁settled	-12645
▁Has	-12646
▁deleg	-12647
Arguments	-12648
▁managers	-12649
▁sampling	-12650
peer	-12651
migration	-12652
operative	-12653
▁rv	-12654
thew	-12655
▁surg	-12656
▁loader	-12657
audio	-12658
▁Leg	-12659
▁boot	-12660
YY	-12661
gres	-12662
▁Case	-12663
▁axes	-12664
Validator	-12665
▁orientation	-12666
>",	-12667
▁AM	-12668
▁optimal	-12669
▁Tag	-12670
rated	-12671
Engine	-12672
opic	-12673
ught	-12674
▁Ensure	-12675
▁meaningful	-12676
@@	-12677
curr	-12678
▁royal	-12679
▁Testament	-12680
▁Harvard	-12681
▁WHETHER	-12682
▁classic	-12683
▁focusing	-12684
eb	-12685
checks	-12686
▁DIS	-12687
▁cure	-12688
▁backwards	-12689
▁Stan	-12690
▁cancers	-12691
▁Rev	-12692
Health	-12693
pled	-12694
▁hide	-12695
▁Li	-12696
specified	-12697
▁CONTRACT	-12698
▁ancestors	-12699
▁controlling	-12700
clo	-12701
ARCH	-12702
▁districts	-12703
▁universities	-12704
▁armed	-12705
aka	-12706
ospel	-12707
▁trim	-12708
▁fatigue	-12709
▁rotation	-12710
tegers	-12711
ENTATION	-12712
▁Islands	-12713
▁ARISING	-12714
▁operators	-12715
▁facilitate	-12716
▁gathered	-12717
Permission	-12718
▁photographs	-12719
given	-12720
▁hero	-12721
▁actively	-12722
aus	-12723
▁fing	-12724
▁migr	-12725
▁suit	-12726
▁urine	-12727
;\	-12728
▁membrane	-12729
▁Gra	-12730
union	-12731
▁tack	-12732
▁violent	-12733
▁Islamic	-12734
Cy	-12735
▁Die	-12736
▁accompanied	-12737
iger	-12738
▁watching	-12739
ko	-12740
▁Az	-12741
pipe	-12742
▁herb	-12743
ranean	-12744
▁ranging	-12745
URI	-12746
▁Incre	-12747
▁achievement	-12748
▁myst	-12749
▁chair	-12750
▁websites	-12751
SN	-12752
=='	-12753
▁scar	-12754
▁coord	-12755
limited	-12756
inations	-12757
BY	-12758
PW	-12759
▁Colorado	-12760
distributed	-12761
leaf	-12762
gmail	-12763
hours	-12764
▁sees	-12765
▁reactor	-12766
comb	-12767
▁Han	-12768
▁whenever	-12769
activate	-12770
awa	-12771
▁cav	-12772
▁ecosystems	-12773
▁lift	-12774
▁stones	-12775
▁steam	-12776
▁provin	-12777
▁conflicts	-12778
▁Parliament	-12779
gc	-12780
▁fur	-12781
▁}}"	-12782
▁kingdom	-12783
▁Phot	-12784
▁till	-12785
▁Portug	-12786
▁metals	-12787
▁volumes	-12788
▁registration	-12789
"',	-12790
_()	-12791
▁Item	-12792
android	-12793
uscript	-12794
star	-12795
▁powder	-12796
bial	-12797
▁img	-12798
ework	-12799
▁borrow	-12800
▁contributors	-12801
▁connecting	-12802
('#	-12803
▁Ul	-12804
▁spark	-12805
▁Wikipedia	-12806
scheduler	-12807
▁strategic	-12808
POINT	-12809
▁Jerusalem	-12810
BD	-12811
Mag	-12812
▁cas	-12813
raging	-12814
Missing	-12815
cleaned	-12816
backends	-12817
▁outfile	-12818
▁engagement	-12819
ManyToManyField	-12820
▁Small	-12821
▁Alexander	-12822
▁Cost	-12823
▁Sunday	-12824
▁virtually	-12825
▁protot	-12826
▁cord	-12827
Entity	-12828
fulness	-12829
▁Pack	-12830
▁Prop	-12831
HEADER	-12832
▁qualified	-12833
Creat	-12834
EVENT	-12835
▁passion	-12836
trunc	-12837
serializer	-12838
Runner	-12839
▁arbitrary	-12840
▁reflection	-12841
Agent	-12842
Mapping	-12843
yer	-12844
ascript	-12845
▁Volume	-12846
ntaxError	-12847
Na	-12848
ceans	-12849
Should	-12850
hide	-12851
▁barrier	-12852
▁choosing	-12853
▁automatic	-12854
▁basically	-12855
▁flask	-12856
▁hostname	-12857
enda	-12858
strap	-12859
orphic	-12860
▁dominant	-12861
Wait	-12862
marks	-12863
▁grades	-12864
▁routes	-12865
▁conserv	-12866
into	-12867
▁hall	-12868
UUUUUUUU	-12869
▁recycling	-12870
Windows	-12871
▁occupied	-12872
▁shore	-12873
Required	-12874
▁imports	-12875
UUID	-12876
▁basestring	-12877
]["	-12878
▁dairy	-12879
▁productivity	-12880
inux	-12881
▁dns	-12882
since	-12883
▁Saint	-12884
▁holiday	-12885
nf	-12886
iro	-12887
▁aging	-12888
▁compile	-12889
▁Hawai	-12890
filenames	-12891
▁Reference	-12892
▁specialized	-12893
filled	-12894
▁sevent	-12895
▁evident	-12896
▁literally	-12897
▁deficiency	-12898
hw	-12899
bow	-12900
▁tob	-12901
oz	-12902
half	-12903
▁assemb	-12904
Multiple	-12905
▁psychology	-12906
▁nutritional	-12907
Flags	-12908
▁circular	-12909
assertIsNone	-12910
yy	-12911
AndReturn	-12912
▁purchased	-12913
▁Fact	-12914
▁Music	-12915
▁bom	-12916
oline	-12917
▁Indeed	-12918
certificate	-12919
SITE	-12920
there	-12921
▁unlike	-12922
▁Vietnam	-12923
▁arc	-12924
▁celebrated	-12925
▁Building	-12926
▁everywhere	-12927
rst	-12928
phal	-12929
▁orth	-12930
▁Far	-12931
callable	-12932
▁neurons	-12933
▁victory	-12934
▁forecast	-12935
▁visibility	-12936
▁transferred	-12937
tor	-12938
Fake	-12939
Help	-12940
ntil	-12941
▁Navy	-12942
▁hint	-12943
▁codecs	-12944
▁guarante	-12945
▁minimize	-12946
pd	-12947
▁lex	-12948
▁pub	-12949
eness	-12950
inalg	-12951
▁representative	-12952
bank	-12953
▁desk	-12954
▁tracking	-12955
PV	-12956
▁Senate	-12957
▁chromos	-12958
▁matched	-12959
▁privacy	-12960
▁prevents	-12961
pot	-12962
Less	-12963
▁qualities	-12964
▁requiring	-12965
▁remarkable	-12966
RandomVariable	-12967
▁pH	-12968
Conf	-12969
getter	-12970
rowing	-12971
▁Level	-12972
GA	-12973
▁Site	-12974
▁coat	-12975
▁Apple	-12976
▁EXPRESS	-12977
▁accessed	-12978
recv	-12979
▁gyp	-12980
INGLE	-12981
▁horizontal	-12982
▁interpreted	-12983
▁tact	-12984
CLI	-12985
NUM	-12986
Language	-12987
quee	-12988
▁amin	-12989
▁wash	-12990
volumes	-12991
▁Father	-12992
▁reflected	-12993
▁Yes	-12994
covered	-12995
building	-12996
lexible	-12997
▁Options	-12998
CREATE	-12999
▁robust	-13000
iological	-13001
hot	-13002
owners	-13003
▁nick	-13004
▁oxid	-13005
▁summar	-13006
▁possess	-13007
▁Economic	-13008
▁nullable	-13009
▁Elizabeth	-13010
AMPL	-13011
icator	-13012
appings	-13013
rove	-13014
▁dil	-13015
▁anch	-13016
▁literal	-13017
▁SER	-13018
▁resistant	-13019
fw	-13020
▁Jacob	-13021
coordin	-13022
▁distinguish	-13023
tip	-13024
than	-13025
▁resil	-13026
▁confusion	-13027
▁SSL	-13028
▁cotton	-13029
▁activation	-13030
CV	-13031
shire	-13032
▁artif	-13033
▁welfare	-13034
▁Franklin	-13035
onaut	-13036
▁"[	-13037
▁Hun	-13038
iq	-13039
▁joy	-13040
tester	-13041
▁Olymp	-13042
TEMPLATE	-13043
san	-13044
VERT	-13045
ribe	-13046
▁FIXME	-13047
▁aggressive	-13048
oose	-13049
INST	-13050
setter	-13051
Install	-13052
▁Wildlife	-13053
tc	-13054
▁expertise	-13055
▁gran	-13056
▁Santa	-13057
▁occas	-13058
ertionError	-13059
pars	-13060
▁regime	-13061
▁spoke	-13062
▁infants	-13063
▁develops	-13064
oom	-13065
infl	-13066
▁Turk	-13067
Testing	-13068
uda	-13069
agon	-13070
▁puts	-13071
▁pollut	-13072
▁varies	-13073
conscious	-13074
▁proceed	-13075
▁scatter	-13076
ubble	-13077
▁batt	-13078
▁unlikely	-13079
▁sodium	-13080
avascript	-13081
three	-13082
▁Risk	-13083
▁discussions	-13084
▁recall	-13085
places	-13086
▁Session	-13087
fro	-13088
▁spots	-13089
▁stood	-13090
▁Confed	-13091
inventory	-13092
▁Agriculture	-13093
▁ssl	-13094
human	-13095
▁Decimal	-13096
▁mature	-13097
▁spinal	-13098
▁Student	-13099
▁consent	-13100
necessary	-13101
acer	-13102
recip	-13103
▁hosp	-13104
agan	-13105
▁Area	-13106
▁personnel	-13107
▁encountered	-13108
MOD	-13109
▁'/'	-13110
▁soph	-13111
▁sleeping	-13112
▁adm	-13113
▁prey	-13114
▁colonies	-13115
▁STR	-13116
▁vot	-13117
▁noticed	-13118
▁seriously	-13119
cker	-13120
▁Mid	-13121
domin	-13122
▁weigh	-13123
organization	-13124
▁Van	-13125
catch	-13126
ennial	-13127
listen	-13128
▁Ga	-13129
▁courts	-13130
ckets	-13131
guard	-13132
▁DOUBLE	-13133
▁persistent	-13134
('.')	-13135
▁drinks	-13136
effective	-13137
EMP	-13138
▁pilot	-13139
▁compost	-13140
▁OTHERWISE	-13141
▁Team	-13142
cleanup	-13143
▁poetry	-13144
▁Week	-13145
accounts	-13146
▁anticip	-13147
enium	-13148
umatic	-13149
▁songs	-13150
examples	-13151
▁Ministry	-13152
avg	-13153
insn	-13154
▁App	-13155
▁joints	-13156
▁digit	-13157
oir	-13158
workers	-13159
forced	-13160
▁pione	-13161
restrict	-13162
={}	-13163
▁await	-13164
▁tone	-13165
▁Twitter	-13166
▁municip	-13167
unctuation	-13168
ffers	-13169
▁ears	-13170
romium	-13171
▁infer	-13172
!”	-13173
isol	-13174
COLOR	-13175
▁md	-13176
openstack	-13177
__',	-13178
▁Ange	-13179
apeutic	-13180
▁witness	-13181
▁overview	-13182
▁tries	-13183
▁Korean	-13184
▁cooperation	-13185
snap	-13186
dating	-13187
▁estate	-13188
poch	-13189
redit	-13190
wit	-13191
▁cul	-13192
▁teens	-13193
▁opinions	-13194
▁medicines	-13195
rey	-13196
Debug	-13197
▁surpri	-13198
Collection	-13199
CN	-13200
}]	-13201
arios	-13202
▁Based	-13203
character	-13204
▁severity	-13205
▁colonial	-13206
▁Treatment	-13207
▁chocolate	-13208
▁tobacco	-13209
▁EPA	-13210
▁CONF	-13211
▁Crit	-13212
▁visits	-13213
▁solving	-13214
generated	-13215
▁Egyptian	-13216
▁developers	-13217
▁trem	-13218
▁bleeding	-13219
SK	-13220
Timer	-13221
▁pitch	-13222
▁Biology	-13223
▁inequal	-13224
Video	-13225
▁accord	-13226
▁devast	-13227
▁Redistributions	-13228
ENS	-13229
▁Univers	-13230
▁markers	-13231
▁Pakistan	-13232
categories	-13233
▁restoration	-13234
([(	-13235
cube	-13236
weet	-13237
▁rac	-13238
▁inserted	-13239
PP	-13240
emia	-13241
acles	-13242
opcode	-13243
ERP	-13244
pyp	-13245
echo	-13246
▁gent	-13247
dm	-13248
▁sig	-13249
▁Several	-13250
▁TR	-13251
('',	-13252
omal	-13253
▁echo	-13254
Despite	-13255
/(	-13256
ONG	-13257
▁gods	-13258
itled	-13259
uther	-13260
▁constraint	-13261
Encoder	-13262
Whether	-13263
▁Cat	-13264
▁gast	-13265
▁prescribed	-13266
Ben	-13267
▁divide	-13268
▁magnet	-13269
▁algorithms	-13270
SIGN	-13271
Tuple	-13272
binding	-13273
▁scales	-13274
▁configure	-13275
▁reply	-13276
ANY	-13277
▁NS	-13278
vault	-13279
website	-13280
▁restaur	-13281
▁registry	-13282
chart	-13283
rowth	-13284
▁wage	-13285
Symbol	-13286
▁dummy	-13287
▁celebrate	-13288
▁involvement	-13289
UNK	-13290
▁CR	-13291
▁origins	-13292
▁shelter	-13293
▁volunteers	-13294
ctxt	-13295
randint	-13296
▁sacred	-13297
▁velocity	-13298
")),	-13299
▁convin	-13300
▁Commons	-13301
Raw	-13302
Regex	-13303
▁Real	-13304
▁realized	-13305
four	-13306
▁cust	-13307
transl	-13308
▁transformed	-13309
▁possibilities	-13310
Mer	-13311
Exists	-13312
credit	-13313
▁mammals	-13314
OFF	-13315
▁Nov	-13316
general	-13317
▁Perhaps	-13318
▁implementing	-13319
Sparse	-13320
cookies	-13321
▁protest	-13322
▁refused	-13323
people	-13324
▁depict	-13325
▁analyzed	-13326
enza	-13327
▁atomic	-13328
";	-13329
uity	-13330
▁Est	-13331
Cloud	-13332
inois	-13333
▁clothes	-13334
▁realm	-13335
▁guarantee	-13336
▁ion	-13337
erance	-13338
▁submit	-13339
<<	-13340
▁Cub	-13341
accur	-13342
Append	-13343
shaped	-13344
▁Frame	-13345
▁Andrew	-13346
fb	-13347
CLA	-13348
cov	-13349
tebr	-13350
▁Bang	-13351
▁coron	-13352
patches	-13353
preview	-13354
▁funded	-13355
▁vegetable	-13356
▁SO	-13357
▁Greece	-13358
▁earthquake	-13359
▁dating	-13360
assertNotEqual	-13361
shapes	-13362
▁],	-13363
▁Hum	-13364
▁ISO	-13365
lined	-13366
adelph	-13367
▁advis	-13368
▁likelihood	-13369
ón	-13370
Dest	-13371
▁RFC	-13372
▁Which	-13373
▁colony	-13374
▁Abraham	-13375
▁tension	-13376
▁variant	-13377
▁agreements	-13378
IDENT	-13379
Power	-13380
▁oblig	-13381
▁Full	-13382
placement	-13383
▁submitted	-13384
▁{}".	-13385
▁neural	-13386
▁succeeded	-13387
Water	-13388
xpath	-13389
Lev	-13390
▁crown	-13391
▁MO	-13392
▁Offic	-13393
▁grace	-13394
▁legit	-13395
▁rejected	-13396
}{	-13397
▁beach	-13398
▁doctr	-13399
Rate	-13400
▁Tri	-13401
▁dement	-13402
▁varying	-13403
▁accurately	-13404
."),	-13405
▁invasion	-13406
Creates	-13407
▁ultimate	-13408
▁complement	-13409
iop	-13410
▁tort	-13411
inding	-13412
▁computed	-13413
inel	-13414
rick	-13415
▁ven	-13416
issance	-13417
▁barriers	-13418
registration	-13419
▁transactions	-13420
mtime	-13421
▁Moses	-13422
Setting	-13423
healthy	-13424
▁normalize	-13425
▁designated	-13426
Pan	-13427
▁semi	-13428
▁cookies	-13429
▁manually	-13430
iterranean	-13431
▁hem	-13432
quiry	-13433
▁totally	-13434
▁partnership	-13435
edx	-13436
▁uns	-13437
Scope	-13438
▁Adam	-13439
▁Invest	-13440
▁compiled	-13441
xF	-13442
▁planted	-13443
=('	-13444
▁bears	-13445
elect	-13446
▁enthus	-13447
▁helper	-13448
▁faculty	-13449
▁meetings	-13450
pointer	-13451
ipped	-13452
▁savings	-13453
ggreg	-13454
▁buying	-13455
▁paying	-13456
▁beam	-13457
TEXTNS	-13458
DOCUM	-13459
works	-13460
▁pace	-13461
▁receives	-13462
notification	-13463
Oct	-13464
entities	-13465
Full	-13466
Left	-13467
Learn	-13468
▁sons	-13469
▁throat	-13470
▁surprise	-13471
▁happiness	-13472
:||	-13473
=[],	-13474
Play	-13475
Authent	-13476
dependency	-13477
finite	-13478
▁juice	-13479
▁incent	-13480
▁subsid	-13481
▁wearing	-13482
▁displays	-13483
zymes	-13484
▁tough	-13485
▁persist	-13486
▁Secretary	-13487
vn	-13488
▁HE	-13489
▁Ram	-13490
UNCTYPE	-13491
▁herself	-13492
Sur	-13493
Utils	-13494
▁puzz	-13495
▁flush	-13496
▁juris	-13497
alog	-13498
▁Ell	-13499
▁Corn	-13500
thumbnail	-13501
▁segments	-13502
Identifier	-13503
ski	-13504
▁Being	-13505
▁fifth	-13506
Library	-13507
chnology	-13508
▁reveals	-13509
▁restriction	-13510
mill	-13511
▁exem	-13512
repeat	-13513
episode	-13514
▁emerged	-13515
showIndent	-13516
▁Used	-13517
▁Daniel	-13518
▁compass	-13519
SIG	-13520
gnore	-13521
▁Cell	-13522
▁Major	-13523
▁Due	-13524
▁Lew	-13525
icture	-13526
mental	-13527
▁efficiently	-13528
▁clouds	-13529
EGER	-13530
ighth	-13531
▁tends	-13532
▁posted	-13533
adelphia	-13534
▁Son	-13535
▁readily	-13536
▁succeed	-13537
!!!!	-13538
▁AUTH	-13539
▁Rose	-13540
inherit	-13541
adjust	-13542
Related	-13543
▁varied	-13544
▁failures	-13545
▁prayer	-13546
initialize	-13547
sz	-13548
gid	-13549
▁bee	-13550
isations	-13551
▁defining	-13552
▁distances	-13553
▁Nob	-13554
INPUT	-13555
▁exploring	-13556
▁consisting	-13557
Hz	-13558
LOAD	-13559
▁Bureau	-13560
▁somewhere	-13561
ques	-13562
▁ampl	-13563
▁suspect	-13564
▁Heritage	-13565
▁(@	-13566
plane	-13567
ships	-13568
▁gray	-13569
Display	-13570
▁burden	-13571
▁pupils	-13572
TERN	-13573
terior	-13574
splitlines	-13575
▁absorb	-13576
▁acquire	-13577
▁dialect	-13578
Loop	-13579
gain	-13580
theme	-13581
▁Norm	-13582
▁developments	-13583
▁LO	-13584
▁Expl	-13585
ghan	-13586
ILLIC	-13587
uniform	-13588
▁quoted	-13589
▁searching	-13590
▁circulation	-13591
▁du	-13592
Cent	-13593
Formatter	-13594
+',	-13595
profit	-13596
▁arise	-13597
▁Testing	-13598
alo	-13599
seng	-13600
▁eros	-13601
between	-13602
▁beneath	-13603
▁surgical	-13604
constraints	-13605
▁consequence	-13606
▁Hard	-13607
▁deer	-13608
▁smell	-13609
SOUR	-13610
▁pets	-13611
▁suicide	-13612
▁lighting	-13613
▁Corporation	-13614
▁alternatives	-13615
PK	-13616
▁lakes	-13617
▁Remember	-13618
▁accomplish	-13619
▁cited	-13620
▁advances	-13621
Small	-13622
▁Trust	-13623
▁capac	-13624
YRILLIC	-13625
positions	-13626
▁absolutely	-13627
▁competitive	-13628
***	-13629
anz	-13630
conomic	-13631
▁churches	-13632
cases	-13633
▁enjoyed	-13634
▁pointer	-13635
▁Ut	-13636
▁Ice	-13637
allet	-13638
▁Load	-13639
▁repet	-13640
Standard	-13641
▁Vitamin	-13642
ilst	-13643
refer	-13644
▁GLenum	-13645
▁gardens	-13646
▁upgrade	-13647
formatter	-13648
▁decorator	-13649
early	-13650
▁Hence	-13651
▁async	-13652
▁modes	-13653
▁insights	-13654
▁workplace	-13655
▁separation	-13656
BM	-13657
mass	-13658
mtree	-13659
▁reserv	-13660
quisition	-13661
fi	-13662
jud	-13663
▁oils	-13664
▁compress	-13665
▁perfectly	-13666
sphinx	-13667
▁winds	-13668
▁locally	-13669
GI	-13670
edirs	-13671
▁clay	-13672
logits	-13673
▁distutils	-13674
▁surrounded	-13675
roud	-13676
globals	-13677
Transport	-13678
Null	-13679
▁sear	-13680
▁specialist	-13681
▁Historical	-13682
▁Tib	-13683
▁Need	-13684
makers	-13685
tmpdir	-13686
▁dress	-13687
controls	-13688
iams	-13689
TYPES	-13690
▁cancel	-13691
▁filenames	-13692
▁immigrants	-13693
turn	-13694
▁Fake	-13695
▁tower	-13696
neutron	-13697
('/')	-13698
▁Prom	-13699
▁sync	-13700
▁tongue	-13701
Serialize	-13702
▁Physical	-13703
attachment	-13704
Func	-13705
Controller	-13706
prod	-13707
LOCAL	-13708
▁paintings	-13709
rr	-13710
▁Os	-13711
styles	-13712
▁suddenly	-13713
▁spacecraft	-13714
Try	-13715
yst	-13716
asis	-13717
bidden	-13718
▁sister	-13719
ippi	-13720
▁Kids	-13721
▁viral	-13722
asarray	-13723
▁annually	-13724
gence	-13725
▁strange	-13726
▁sciences	-13727
▁enforcement	-13728
▁builds	-13729
Additional	-13730
▁membership	-13731
Route	-13732
ROL	-13733
▁Ess	-13734
▁copied	-13735
▁cab	-13736
World	-13737
assium	-13738
depends	-13739
▁hybrid	-13740
▁diagram	-13741
▁graduate	-13742
▁underground	-13743
funcs	-13744
PM	-13745
imals	-13746
▁ensures	-13747
▁hormones	-13748
▁preparing	-13749
III	-13750
▁eleph	-13751
▁alphabet	-13752
rait	-13753
addon	-13754
ADATA	-13755
▁cable	-13756
▁cough	-13757
▁belongs	-13758
iguous	-13759
▁Enter	-13760
▁frames	-13761
▁Ont	-13762
Sched	-13763
claration	-13764
▁dementia	-13765
▁implicit	-13766
▁simultaneously	-13767
Both	-13768
subs	-13769
tics	-13770
enario	-13771
▁adverse	-13772
MED	-13773
due	-13774
▁ho	-13775
▁assumptions	-13776
Grid	-13777
zeug	-13778
Member	-13779
▁thank	-13780
OPTIONS	-13781
iability	-13782
▁excluded	-13783
▁electrons	-13784
▁pert	-13785
Track	-13786
otype	-13787
▁chicken	-13788
/*	-13789
adv	-13790
▁cuts	-13791
▁penet	-13792
▁shark	-13793
▁reasoning	-13794
▁Connection	-13795
▁surveys	-13796
▁adjacent	-13797
▁(“	-13798
bris	-13799
rating	-13800
▁aside	-13801
western	-13802
▁obtaining	-13803
Quest	-13804
certs	-13805
▁boxes	-13806
flatten	-13807
▁Century	-13808
▁dynamics	-13809
▁Farm	-13810
▁disp	-13811
▁mini	-13812
▁calib	-13813
▁minority	-13814
icast	-13815
▁Pain	-13816
arians	-13817
iblical	-13818
▁tracks	-13819
▁Muslims	-13820
▁distinction	-13821
▁BO	-13822
▁Hom	-13823
▁oste	-13824
▁texture	-13825
inth	-13826
▁gum	-13827
ogens	-13828
▁relating	-13829
mkdir	-13830
Double	-13831
cremental	-13832
▁poster	-13833
▁humidity	-13834
▁licensed	-13835
▁elections	-13836
▁democratic	-13837
MERCHANTABILITY	-13838
Backend	-13839
spark	-13840
▁disag	-13841
wrapped	-13842
Cap	-13843
▁shadow	-13844
▁isolation	-13845
▁practition	-13846
rat	-13847
finish	-13848
▁resist	-13849
▁kitchen	-13850
▁convenient	-13851
▁Sus	-13852
sensus	-13853
▁collapse	-13854
▁precisely	-13855
▁Mediterranean	-13856
▁Dou	-13857
rices	-13858
Scient	-13859
▁delib	-13860
Ant	-13861
Ctrl	-13862
unused	-13863
signals	-13864
checksum	-13865
dx	-13866
via	-13867
raid	-13868
▁Address	-13869
▁profound	-13870
irus	-13871
rose	-13872
▁SUP	-13873
income	-13874
matching	-13875
▁TestCase	-13876
▁Encyclopedia	-13877
restore	-13878
▁metaph	-13879
▁swelling	-13880
▁neighbors	-13881
▁calculation	-13882
ponential	-13883
▁illnesses	-13884
▁establishing	-13885
LANG	-13886
▁SUB	-13887
▁Rail	-13888
ValidationError	-13889
Pick	-13890
▁Eco	-13891
Popen	-13892
▁amino	-13893
▁statistical	-13894
SI	-13895
WIN	-13896
▁Arts	-13897
▁Angeles	-13898
▁Mexican	-13899
▁proposal	-13900
▁DNS	-13901
▁Obama	-13902
▁Friday	-13903
▁vectors	-13904
▁reproductive	-13905
nv	-13906
▁cream	-13907
▁Turkey	-13908
▁unpack	-13909
nm	-13910
elly	-13911
▁bought	-13912
.]	-13913
▁Pay	-13914
▁HOLD	-13915
▁logs	-13916
scopes	-13917
ceeding	-13918
▁Marine	-13919
.-	-13920
▁UV	-13921
▁disadvant	-13922
imag	-13923
▁invasive	-13924
ethe	-13925
▁ash	-13926
▁governed	-13927
▁corporate	-13928
Draw	-13929
▁Ast	-13930
errno	-13931
▁DATA	-13932
▁lineno	-13933
▁Philipp	-13934
alg	-13935
▁PC	-13936
igest	-13937
repre	-13938
▁sulf	-13939
▁thrown	-13940
▁empower	-13941
▁prosper	-13942
▁sqlalchemy	-13943
ika	-13944
▁vig	-13945
science	-13946
determin	-13947
▁cellular	-13948
▁quantities	-13949
▁nuts	-13950
▁lingu	-13951
▁regener	-13952
▁addressing	-13953
azz	-13954
FIELD	-13955
▁Often	-13956
allenge	-13957
REF	-13958
bury	-13959
▁Link	-13960
structive	-13961
▁pleasure	-13962
▁discipline	-13963
inch	-13964
utdown	-13965
central	-13966
▁painted	-13967
▁reflects	-13968
▁aggregate	-13969
▁accounting	-13970
▁Gall	-13971
▁queries	-13972
▁accompany	-13973
ADDR	-13974
▁favour	-13975
iano	-13976
▁coc	-13977
panel	-13978
regon	-13979
fac	-13980
▁Nap	-13981
▁relate	-13982
▁outline	-13983
▁mistakes	-13984
▁partially	-13985
passed	-13986
▁ruled	-13987
▁Princi	-13988
▁keywords	-13989
hyper	-13990
Publ	-13991
esthetic	-13992
▁distant	-13993
qt	-13994
___	-13995
iph	-13996
▁Master	-13997
Day	-13998
mesh	-13999
▁Ide	-14000
▁Lim	-14001
letion	-14002
Qgs	-14003
blems	-14004
verts	-14005
▁Fair	-14006
Section	-14007
setText	-14008
Security	-14009
▁collecting	-14010
Micro	-14011
▁Query	-14012
▁films	-14013
▁loads	-14014
▁indicator	-14015
▁regression	-14016
_):	-14017
nest	-14018
▁Fed	-14019
▁fee	-14020
esium	-14021
take	-14022
inery	-14023
REAM	-14024
ANSIBLE	-14025
Internal	-14026
▁productive	-14027
▁Kh	-14028
beat	-14029
rename	-14030
Generic	-14031
▁attractive	-14032
▁inhabitants	-14033
eu	-14034
metic	-14035
Through	-14036
▁Later	-14037
▁extracted	-14038
bled	-14039
▁inev	-14040
▁visiting	-14041
▁creativity	-14042
NP	-14043
thur	-14044
▁Self	-14045
iments	-14046
square	-14047
▁impression	-14048
serialized	-14049
▁"#	-14050
▁oct	-14051
charg	-14052
METADATA	-14053
Expr	-14054
stub	-14055
rible	-14056
▁enzyme	-14057
▁abundance	-14058
▁rooms	-14059
atories	-14060
▁Indones	-14061
]'	-14062
▁por	-14063
▁succ	-14064
▁arter	-14065
▁peers	-14066
▁bottle	-14067
▁distribute	-14068
▁influences	-14069
eller	-14070
▁rough	-14071
configs	-14072
▁yields	-14073
Ter	-14074
aze	-14075
iner	-14076
▁RNA	-14077
▁altered	-14078
wind	-14079
▁Hindu	-14080
▁landing	-14081
▁determines	-14082
▁pipes	-14083
▁allergic	-14084
▁attachment	-14085
Stats	-14086
TABLE	-14087
▁globe	-14088
▁Station	-14089
makedirs	-14090
▁flexibility	-14091
raine	-14092
AMPLES	-14093
▁Guard	-14094
ivities	-14095
▁empire	-14096
▁impair	-14097
▁villages	-14098
▁exclusive	-14099
vy	-14100
▁FDA	-14101
tract	-14102
▁seal	-14103
subscription	-14104
aylor	-14105
▁Fish	-14106
▁approval	-14107
▁Short	-14108
▁margin	-14109
▁*',	-14110
▁incidence	-14111
Scal	-14112
JzKet	-14113
▁abol	-14114
▁Third	-14115
▁attributed	-14116
modify	-14117
▁predat	-14118
▁fitness	-14119
▁invention	-14120
MULT	-14121
lename	-14122
▁outdoor	-14123
........	-14124
lett	-14125
▁nom	-14126
▁cave	-14127
▁divine	-14128
▁Writing	-14129
▁swimming	-14130
▁attitudes	-14131
▁contributing	-14132
▁priest	-14133
▁pixels	-14134
analytic	-14135
▁imagination	-14136
▁initiatives	-14137
▁cc	-14138
Stub	-14139
umped	-14140
▁Best	-14141
▁fname	-14142
streams	-14143
▁Peace	-14144
▁alumin	-14145
▁Illinois	-14146
▁entrance	-14147
▁comparing	-14148
ema	-14149
icating	-14150
windows	-14151
▁refresh	-14152
▁metabolism	-14153
▁prevalence	-14154
▁evolutionary	-14155
;&#	-14156
phi	-14157
▁Dev	-14158
locked	-14159
SubElement	-14160
▁entitled	-14161
▁ov	-14162
quare	-14163
uated	-14164
▁calm	-14165
yearly	-14166
▁merch	-14167
▁judgment	-14168
_('	-14169
▁$(	-14170
▁dimin	-14171
▁perpet	-14172
▁phy	-14173
Students	-14174
responses	-14175
"/	-14176
▁busy	-14177
igious	-14178
▁broke	-14179
issippi	-14180
>=	-14181
MIS	-14182
▁inch	-14183
repeated	-14184
VC	-14185
Jan	-14186
heat	-14187
perly	-14188
▁Capt	-14189
▁noqa	-14190
▁slot	-14191
▁expanding	-14192
uer	-14193
▁Bio	-14194
▁Hit	-14195
▁gest	-14196
ACTION	-14197
▁revol	-14198
RSA	-14199
rases	-14200
▁Graph	-14201
imation	-14202
efficients	-14203
▁CFUNCTYPE	-14204
▁livestock	-14205
reach	-14206
▁Allow	-14207
▁administrative	-14208
ASK	-14209
▁Aff	-14210
▁forever	-14211
▁shallow	-14212
▁alongside	-14213
.'),	-14214
gart	-14215
▁Wel	-14216
▁pit	-14217
orus	-14218
▁Nic	-14219
▁Show	-14220
▁wing	-14221
▁digestive	-14222
▁Philadelphia	-14223
▁incorporated	-14224
▁possession	-14225
ivar	-14226
theta	-14227
patterns	-14228
▁speaker	-14229
▁motivation	-14230
misc	-14231
▁Ott	-14232
▁hygi	-14233
▁pandemic	-14234
▁Bern	-14235
▁radi	-14236
igaret	-14237
roots	-14238
irable	-14239
▁Allah	-14240
▁Chief	-14241
▁SCons	-14242
▁bonds	-14243
▁tomat	-14244
includes	-14245
▁adoption	-14246
▁impl	-14247
priate	-14248
▁wooden	-14249
▁IndexError	-14250
▁manuscript	-14251
▁tou	-14252
▁Trad	-14253
▁bags	-14254
▁Radio	-14255
Based	-14256
▁Skip	-14257
▁hurt	-14258
▁Rather	-14259
CAC	-14260
keras	-14261
oning	-14262
National	-14263
ASH	-14264
svc	-14265
SEQU	-14266
objs	-14267
▁occasionally	-14268
▁specification	-14269
`:	-14270
▁Mic	-14271
▁reef	-14272
▁Unlike	-14273
iterable	-14274
---------	-14275
▁elementary	-14276
▁Ak	-14277
▁Jr	-14278
oming	-14279
▁pose	-14280
Cookie	-14281
▁Future	-14282
▁resemb	-14283
dead	-14284
▁Typ	-14285
Lookup	-14286
ologic	-14287
▁Antar	-14288
bn	-14289
;':	-14290
▁memor	-14291
▁Stream	-14292
Download	-14293
▁generates	-14294
Did	-14295
▁Opt	-14296
▁rod	-14297
▁Watch	-14298
▁kilometers	-14299
CHE	-14300
▁dramatically	-14301
alty	-14302
emed	-14303
▁implies	-14304
▁athletes	-14305
▁elevated	-14306
'_	-14307
LINK	-14308
agog	-14309
▁Mot	-14310
▁operated	-14311
tabs	-14312
ctypes	-14313
▁wings	-14314
▁Kent	-14315
▁prisoners	-14316
FFFF	-14317
▁honest	-14318
▁regulate	-14319
▁vice	-14320
Remote	-14321
▁Creek	-14322
▁appeal	-14323
▁Having	-14324
▁revenue	-14325
▁tomb	-14326
widgets	-14327
ftp	-14328
mers	-14329
habilit	-14330
community	-14331
▁deposits	-14332
%%	-14333
LOGGER	-14334
▁susceptible	-14335
▁Emer	-14336
izable	-14337
▁erosion	-14338
VD	-14339
▁Ha	-14340
▁shade	-14341
▁hospitals	-14342
▁independently	-14343
Limit	-14344
nesota	-14345
Finally	-14346
rection	-14347
▁Buddha	-14348
▁systematic	-14349
▁Win	-14350
▁suggestions	-14351
BAD	-14352
news	-14353
▁Dam	-14354
▁Cond	-14355
▁Monday	-14356
▁shares	-14357
▁PhD	-14358
▁Colon	-14359
transfer	-14360
▁theoretical	-14361
astics	-14362
▁Mathemat	-14363
▁clusters	-14364
FROM	-14365
WITH	-14366
lott	-14367
manual	-14368
▁Examples	-14369
lene	-14370
resize	-14371
Category	-14372
▁extends	-14373
VS	-14374
ARE	-14375
Height	-14376
writing	-14377
pectives	-14378
▁itertools	-14379
!)	-14380
▁Save	-14381
▁degrad	-14382
▁precip	-14383
GTH	-14384
ctl	-14385
▁vert	-14386
ustainable	-14387
▁processor	-14388
peg	-14389
▁wars	-14390
▁crimes	-14391
▁timing	-14392
▁amongst	-14393
▁capability	-14394
▁optical	-14395
▁replacing	-14396
▁transparent	-14397
}",	-14398
▁psy	-14399
▁knee	-14400
ordinary	-14401
▁matplotlib	-14402
dam	-14403
▁odd	-14404
▁tape	-14405
Series	-14406
▁Trade	-14407
MAT	-14408
▁TEST	-14409
▁diagnostic	-14410
▁fascinating	-14411
▁clip	-14412
▁Output	-14413
▁plates	-14414
▁welcome	-14415
lem	-14416
vae	-14417
▁poet	-14418
▁mapped	-14419
▁sectors	-14420
UG	-14421
ABC	-14422
mysql	-14423
templ	-14424
▁ValidationError	-14425
▁Bush	-14426
▁plural	-14427
Component	-14428
execution	-14429
▁atmospheric	-14430
PG	-14431
RT	-14432
Summary	-14433
▁elderly	-14434
CHO	-14435
IDL	-14436
▁nam	-14437
Setup	-14438
always	-14439
▁hopes	-14440
▁overr	-14441
▁bugs	-14442
▁intra	-14443
▁molecule	-14444
▁Hem	-14445
degree	-14446
received	-14447
La	-14448
cio	-14449
Machine	-14450
auc	-14451
Integr	-14452
Running	-14453
encoder	-14454
▁Verify	-14455
deepcopy	-14456
▁engineer	-14457
ona	-14458
▁soils	-14459
aternal	-14460
▁Constant	-14461
nr	-14462
ili	-14463
▁referring	-14464
▁frequencies	-14465
chdir	-14466
▁simulation	-14467
"><	-14468
▁dipl	-14469
▁therm	-14470
authorized	-14471
▁databases	-14472
?\	-14473
.||	-14474
▁LED	-14475
gebra	-14476
plural	-14477
▁locate	-14478
▁PL	-14479
▁vag	-14480
▁tied	-14481
▁Buddh	-14482
▁cheap	-14483
▁tumors	-14484
▁sediment	-14485
▁specifies	-14486
▁ordering	-14487
▁surprised	-14488
▁endangered	-14489
las	-14490
▁analyses	-14491
▁pep	-14492
arrays	-14493
▁persu	-14494
strategy	-14495
▁bullying	-14496
▁leak	-14497
▁sympt	-14498
▁integral	-14499
▁convention	-14500
▁chamber	-14501
ologically	-14502
AIN	-14503
')):	-14504
ouri	-14505
rill	-14506
▁rays	-14507
▁calculations	-14508
ea	-14509
:],	-14510
sky	-14511
Keep	-14512
pixel	-14513
▁sheets	-14514
Classifier	-14515
omic	-14516
▁stere	-14517
ORIZ	-14518
leton	-14519
ropol	-14520
▁Wis	-14521
Vertex	-14522
hedral	-14523
untary	-14524
separator	-14525
'#	-14526
ifth	-14527
▁hunt	-14528
▁arthritis	-14529
enna	-14530
▁'':	-14531
iline	-14532
▁synthetic	-14533
_("	-14534
FFER	-14535
▁diarr	-14536
▁FL	-14537
athan	-14538
Bounded	-14539
WARNING	-14540
▁medieval	-14541
▁consuming	-14542
?',	-14543
▁twe	-14544
▁invented	-14545
▁allergies	-14546
reement	-14547
▁thirty	-14548
▁occurrence	-14549
();	-14550
His	-14551
▁Geo	-14552
Short	-14553
pause	-14554
▁hung	-14555
▁consistently	-14556
▁mesh	-14557
erator	-14558
Package	-14559
NT	-14560
Body	-14561
WORK	-14562
coll	-14563
ulture	-14564
▁Corps	-14565
▁liberal	-14566
▁Pope	-14567
▁folk	-14568
▁diets	-14569
▁trail	-14570
terms	-14571
▁survived	-14572
surface	-14573
splitext	-14574
▁enzymes	-14575
▁initialize	-14576
▁encouraging	-14577
▁\\	-14578
▁ms	-14579
spam	-14580
]"	-14581
bec	-14582
ett	-14583
▁deriv	-14584
▁duplic	-14585
]{	-14586
▁caps	-14587
tox	-14588
▁Given	-14589
▁Oregon	-14590
▁phones	-14591
▁stretch	-14592
▁rainfall	-14593
▁combinations	-14594
▁mp	-14595
Compute	-14596
▁myster	-14597
ENABLE	-14598
▁grams	-14599
▁csv	-14600
▁oceans	-14601
WA	-14602
ISO	-14603
▁':	-14604
rium	-14605
▁holy	-14606
angles	-14607
▁stabil	-14608
▁refugees	-14609
▁Additional	-14610
+-	-14611
▁tm	-14612
Sets	-14613
itored	-14614
Rect	-14615
▁weekly	-14616
▁Assembly	-14617
▁symbolic	-14618
")])	-14619
refs	-14620
▁vom	-14621
▁conjunction	-14622
cipher	-14623
▁Theory	-14624
production	-14625
▁Assessment	-14626
▁conclusions	-14627
Aug	-14628
doi	-14629
filtered	-14630
arma	-14631
METHO	-14632
arium	-14633
▁suggesting	-14634
▁Rab	-14635
▁doors	-14636
▁minister	-14637
▁Jon	-14638
Cursor	-14639
Folder	-14640
uf	-14641
▁Ray	-14642
▁unders	-14643
▁'&	-14644
▁Fa	-14645
▁pushed	-14646
▁unemploy	-14647
▁discharge	-14648
ACC	-14649
ilib	-14650
onor	-14651
ownt	-14652
▁meter	-14653
▁Altern	-14654
isticated	-14655
▁integrity	-14656
▁provisions	-14657
▁errno	-14658
▁Afghan	-14659
▁Ontario	-14660
FD	-14661
GEN	-14662
▁Jo	-14663
your	-14664
Super	-14665
agram	-14666
iances	-14667
decoder	-14668
▁escaped	-14669
conditions	-14670
ivy	-14671
ptime	-14672
tzinfo	-14673
▁charges	-14674
▁Standards	-14675
uclear	-14676
▁Appro	-14677
Cleanup	-14678
PASSWORD	-14679
▁Indigenous	-14680
▁Schools	-14681
Iteration	-14682
▁Mountain	-14683
Clear	-14684
▁adolescents	-14685
bulk	-14686
ibli	-14687
▁wake	-14688
▁fibers	-14689
▁popularity	-14690
aki	-14691
defs	-14692
itize	-14693
▁continent	-14694
▁regulatory	-14695
jpg	-14696
sensor	-14697
enders	-14698
▁etree	-14699
▁inline	-14700
▁memories	-14701
zona	-14702
shake	-14703
▁turtle	-14704
▁confused	-14705
▁tutorial	-14706
▁reputation	-14707
bone	-14708
Encoding	-14709
▁colored	-14710
!=	-14711
atile	-14712
needs	-14713
ogene	-14714
PECIAL	-14715
ercise	-14716
▁avoiding	-14717
▁correlation	-14718
XY	-14719
fk	-14720
itate	-14721
nu	-14722
▁mira	-14723
preter	-14724
▁Reserve	-14725
Comput	-14726
▁Training	-14727
▁confident	-14728
-------------	-14729
▁fd	-14730
▁developmental	-14731
Accept	-14732
▁Carib	-14733
▁camps	-14734
▁stops	-14735
Split	-14736
▁treaty	-14737
▁prediction	-14738
▁specifying	-14739
Implementation	-14740
Dim	-14741
aren	-14742
▁Diet	-14743
▁assault	-14744
▁unsigned	-14745
▁Walk	-14746
▁Computer	-14747
CAP	-14748
Europe	-14749
▁aspir	-14750
▁Jackson	-14751
▁metabolic	-14752
MAC	-14753
▁retry	-14754
rmtree	-14755
natural	-14756
workflow	-14757
▁tendency	-14758
▁geographic	-14759
▁Hot	-14760
claimed	-14761
▁contamination	-14762
▁SA	-14763
▁WW	-14764
Tube	-14765
▁wise	-14766
Christ	-14767
▁dried	-14768
ulative	-14769
▁debris	-14770
▁duties	-14771
▁cleanup	-14772
▁brothers	-14773
▁intervals	-14774
▁Mississippi	-14775
?'	-14776
cler	-14777
ulse	-14778
BUILD	-14779
▁pixel	-14780
▁drives	-14781
▁absorption	-14782
▁incorporate	-14783
▁sep	-14784
akers	-14785
▁vars	-14786
'\\	-14787
rng	-14788
nals	-14789
Binary	-14790
▁titles	-14791
▁intermediate	-14792
uls	-14793
mongo	-14794
▁Blood	-14795
upgrade	-14796
Researchers	-14797
cmds	-14798
drive	-14799
tains	-14800
▁Germ	-14801
▁smallest	-14802
▁fant	-14803
limits	-14804
▁Wales	-14805
ifer	-14806
▁ster	-14807
▁partly	-14808
▁'[	-14809
▁canal	-14810
difference	-14811
wire	-14812
▁exhibition	-14813
▁Hyd	-14814
Intern	-14815
▁CT	-14816
▁burned	-14817
/\	-14818
nea	-14819
▁'.'	-14820
▁quot	-14821
▁shoes	-14822
Licensed	-14823
▁Jefferson	-14824
▁thyroid	-14825
enti	-14826
spring	-14827
checked	-14828
▁absorbed	-14829
▁fluor	-14830
▁abandoned	-14831
▁mandatory	-14832
▁associations	-14833
▁altitude	-14834
▁Grade	-14835
reprene	-14836
▁handles	-14837
▁pesticides	-14838
lee	-14839
▁QU	-14840
REEK	-14841
▁plug	-14842
Choice	-14843
illance	-14844
▁arrival	-14845
infect	-14846
iously	-14847
verages	-14848
▁abundant	-14849
▁Extension	-14850
hm	-14851
Rob	-14852
▁Fac	-14853
Keyword	-14854
species	-14855
▁reinforce	-14856
Wifi	-14857
▁brains	-14858
▁flatten	-14859
▁magazine	-14860
ESP	-14861
▁dol	-14862
▁locals	-14863
istically	-14864
idae	-14865
itus	-14866
tein	-14867
▁Deter	-14868
▁dentist	-14869
▁weakness	-14870
▁Permission	-14871
RPC	-14872
MESS	-14873
ilon	-14874
▁Period	-14875
▁Minnesota	-14876
▁spreading	-14877
▁gly	-14878
▁ethics	-14879
▁FA	-14880
▁rent	-14881
▁speeds	-14882
yard	-14883
▁missions	-14884
▁pale	-14885
▁excav	-14886
▁placing	-14887
▁integers	-14888
▁attempting	-14889
▁officially	-14890
▁notification	-14891
▁purs	-14892
▁aliases	-14893
▁fiction	-14894
▁executable	-14895
▁Ren	-14896
▁praise	-14897
▁Story	-14898
▁Emperor	-14899
assertQuery	-14900
▁extraction	-14901
bage	-14902
▁sheep	-14903
▁spine	-14904
▁avoided	-14905
▁borders	-14906
..."	-14907
▁Alaska	-14908
▁Matrix	-14909
▁bull	-14910
▁hass	-14911
▁{}'.	-14912
legend	-14913
▁Wilson	-14914
▁retail	-14915
▁offices	-14916
▁enhanced	-14917
▁inclusion	-14918
GIS	-14919
LEFT	-14920
▁Garden	-14921
▁twelve	-14922
▁Stephen	-14923
▁Williams	-14924
HI	-14925
gency	-14926
▁trading	-14927
providers	-14928
▁organism	-14929
▁trailing	-14930
▁phenomena	-14931
ORM	-14932
▁nx	-14933
ilitary	-14934
Flexible	-14935
clusively	-14936
stitutions	-14937
ibling	-14938
rupted	-14939
PROJECT	-14940
▁Between	-14941
▁console	-14942
▁courage	-14943
Pbb	-14944
Depend	-14945
polation	-14946
▁healthier	-14947
▁Cher	-14948
school	-14949
▁algae	-14950
frequency	-14951
▁wid	-14952
EMENT	-14953
zilla	-14954
olving	-14955
Pres	-14956
neum	-14957
▁selling	-14958
▁resolved	-14959
▁iteration	-14960
▁preference	-14961
seg	-14962
▁Did	-14963
TOKEN	-14964
sized	-14965
ENTIAL	-14966
uction	-14967
setEqual	-14968
▁Isa	-14969
▁cann	-14970
velope	-14971
Tags	-14972
tick	-14973
▁rear	-14974
▁endorse	-14975
▁valve	-14976
▁Still	-14977
▁reuse	-14978
▁Clinical	-14979
utter	-14980
verted	-14981
slash	-14982
▁contrad	-14983
▁dinosaur	-14984
▁speakers	-14985
sci	-14986
COMP	-14987
▁gtk	-14988
chunks	-14989
▁eaten	-14990
mination	-14991
▁scheduled	-14992
tun	-14993
▁cheese	-14994
▁implements	-14995
▁Status	-14996
▁awarded	-14997
▁subsequently	-14998
tmpl	-14999
▁therapies	-15000
="/	-15001
▁pest	-15002
▁SD	-15003
Built	-15004
atype	-15005
▁remed	-15006
▁Ancient	-15007
Dictionary	-15008
▁protocols	-15009
▁declaration	-15010
▁therapeutic	-15011
ho	-15012
Deser	-15013
Joi	-15014
SIM	-15015
CHECK	-15016
▁prog	-15017
▁{}),	-15018
▁negoti	-15019
▁predomin	-15020
crop	-15021
ognition	-15022
▁improves	-15023
▁utilized	-15024
▁dish	-15025
ursday	-15026
▁bless	-15027
DataFrame	-15028
TraceSource	-15029
▁obviously	-15030
▁producers	-15031
GT	-15032
()).	-15033
nick	-15034
Static	-15035
▁salmon	-15036
Pay	-15037
social	-15038
stones	-15039
bp	-15040
cow	-15041
rob	-15042
▁*=	-15043
▁Hig	-15044
▁kin	-15045
astery	-15046
sengers	-15047
sil	-15048
uesday	-15049
▁dying	-15050
▁HOLDERS	-15051
checkpoint	-15052
JoiLev	-15053
Include	-15054
▁Governor	-15055
ascade	-15056
consin	-15057
▁TensorFlow	-15058
actic	-15059
Memory	-15060
needed	-15061
▁Register	-15062
+)	-15063
scribed	-15064
▁patent	-15065
▁injured	-15066
▁triggered	-15067
Hex	-15068
▁representatives	-15069
htm	-15070
scene	-15071
▁bron	-15072
▁feat	-15073
▁Scientific	-15074
▁CDC	-15075
▁doses	-15076
Actions	-15077
▁Others	-15078
DOCUMENTATION	-15079
izz	-15080
▁tanks	-15081
▁contaminated	-15082
Fig	-15083
cular	-15084
▁drops	-15085
▁argues	-15086
▁bearing	-15087
▁achieving	-15088
▁sends	-15089
itecture	-15090
something	-15091
▁synchron	-15092
Initialize	-15093
▁pk	-15094
swap	-15095
▁Visual	-15096
▁inspiration	-15097
<!	-15098
Mean	-15099
posix	-15100
webpage	-15101
▁golden	-15102
Bro	-15103
frac	-15104
▁Sem	-15105
▁Wed	-15106
▁Working	-15107
vv	-15108
',),	-15109
▁Dyn	-15110
▁rib	-15111
▁vine	-15112
activation	-15113
Have	-15114
▁Jun	-15115
▁striking	-15116
['_	-15117
oded	-15118
removed	-15119
▁affairs	-15120
▁irrigation	-15121
}:	-15122
THON	-15123
itzer	-15124
seudo	-15125
▁Scholar	-15126
▁Lock	-15127
▁Tool	-15128
▁tenant	-15129
▁attended	-15130
▁physicians	-15131
▁Sa	-15132
arness	-15133
operands	-15134
▁reviews	-15135
IEW	-15136
▁Ash	-15137
▁onset	-15138
chester	-15139
station	-15140
oven	-15141
▁pill	-15142
▁broader	-15143
tcp	-15144
othe	-15145
▁CPU	-15146
▁march	-15147
▁Philip	-15148
ineteenth	-15149
▁Philosoph	-15150
▁Similarly	-15151
▁Statistics	-15152
Take	-15153
▁clone	-15154
▁Record	-15155
▁valley	-15156
Properties	-15157
▁appointment	-15158
OTE	-15159
chi	-15160
around	-15161
▁Symbol	-15162
Site	-15163
▁Cit	-15164
frappe	-15165
TIMEOUT	-15166
▁carries	-15167
neighbors	-15168
Definition	-15169
THE	-15170
Uns	-15171
▁'{}	-15172
▁Dal	-15173
▁sacrifice	-15174
▁descriptions	-15175
MSG	-15176
usted	-15177
▁defer	-15178
▁duplicate	-15179
emony	-15180
INVALID	-15181
▁fingers	-15182
Axis	-15183
sell	-15184
every	-15185
▁glaci	-15186
▁appreciate	-15187
DED	-15188
Env	-15189
▁mu	-15190
atoes	-15191
otypes	-15192
▁reviewed	-15193
▁prevented	-15194
Zip	-15195
▁plasma	-15196
▁prolong	-15197
▁transmit	-15198
Unexpected	-15199
▁operational	-15200
^{	-15201
▁Tenn	-15202
[...]
